
#ifndef DRONE_MODEL_DATA_H_
#define DRONE_MODEL_DATA_H_

extern const unsigned char g_drone_model_data[];
extern const int g_drone_model_data_len;

const unsigned char g_drone_model_data[] = {
    0x1c, 0x00, 0x00, 0x00, 0x54, 0x46, 0x4c, 0x33, 0x14, 0x00, 0x20, 0x00, 0x1c, 0x00, 0x18, 0x00, 0x14, 0x00, 0x10, 0x00, 0x0c, 0x00, 0x00, 0x00, 0x08, 0x00, 0x04, 0x00, 0x14, 0x00, 0x00, 0x00, 0x1c, 0x00, 0x00, 0x00, 0x98, 0x00, 0x00, 0x00, 0xf0, 0x00, 0x00, 0x00, 0xa0, 0x2e, 0x00, 0x00, 0xb0, 0x2e, 0x00, 0x00, 0x50, 0x34, 0x00, 0x00, 0x03, 0x00, 0x00, 0x00, 0x01, 0x00, 0x00, 0x00, 0x10, 0x00, 0x00, 0x00, 0x00, 0x00, 0x0a, 0x00, 0x10, 0x00, 0x0c, 0x00, 0x08, 0x00, 0x04, 0x00, 0x0a, 0x00, 0x00, 0x00, 0x0c, 0x00, 0x00, 0x00, 0x1c, 0x00, 0x00, 0x00, 0x3c, 0x00, 0x00, 0x00, 0x0f, 0x00, 0x00, 0x00, 0x73, 0x65, 0x72, 0x76, 0x69, 0x6e, 0x67, 0x5f, 0x64, 0x65, 0x66, 0x61, 0x75, 0x6c, 0x74, 0x00, 0x01, 0x00, 0x00, 0x00, 0x04, 0x00, 0x00, 0x00, 0x90, 0xff, 0xff, 0xff, 0x0a, 0x00, 0x00, 0x00, 0x04, 0x00, 0x00, 0x00, 0x08, 0x00, 0x00, 0x00, 0x6f, 0x75, 0x74, 0x70, 0x75, 0x74, 0x5f, 0x30, 0x00, 0x00, 0x00, 0x00, 0x01, 0x00, 0x00, 0x00, 0x04, 0x00, 0x00, 0x00, 0x46, 0xd1, 0xff, 0xff, 0x04, 0x00, 0x00, 0x00, 0x0c, 0x00, 0x00, 0x00, 0x6b, 0x65, 0x72, 0x61, 0x73, 0x5f, 0x74, 0x65, 0x6e, 0x73, 0x6f, 0x72, 0x00, 0x00, 0x00, 0x00, 0x02, 0x00, 0x00, 0x00, 0x34, 0x00, 0x00, 0x00, 0x04, 0x00, 0x00, 0x00, 0xdc, 0xff, 0xff, 0xff, 0x0d, 0x00, 0x00, 0x00, 0x04, 0x00, 0x00, 0x00, 0x13, 0x00, 0x00, 0x00, 0x43, 0x4f, 0x4e, 0x56, 0x45, 0x52, 0x53, 0x49, 0x4f, 0x4e, 0x5f, 0x4d, 0x45, 0x54, 0x41, 0x44, 0x41, 0x54, 0x41, 0x00, 0x08, 0x00, 0x0c, 0x00, 0x08, 0x00, 0x04, 0x00, 0x08, 0x00, 0x00, 0x00, 0x0c, 0x00, 0x00, 0x00, 0x04, 0x00, 0x00, 0x00, 0x13, 0x00, 0x00, 0x00, 0x6d, 0x69, 0x6e, 0x5f, 0x72, 0x75, 0x6e, 0x74, 0x69, 0x6d, 0x65, 0x5f, 0x76, 0x65, 0x72, 0x73, 0x69, 0x6f, 0x6e, 0x00, 0x0e, 0x00, 0x00, 0x00, 0xac, 0x2d, 0x00, 0x00, 0xa4, 0x2d, 0x00, 0x00, 0x94, 0x2b, 0x00, 0x00, 0x84, 0x0b, 0x00, 0x00, 0x64, 0x0b, 0x00, 0x00, 0xd4, 0x0a, 0x00, 0x00, 0xc4, 0x09, 0x00, 0x00, 0xb4, 0x00, 0x00, 0x00, 0xac, 0x00, 0x00, 0x00, 0xa4, 0x00, 0x00, 0x00, 0x9c, 0x00, 0x00, 0x00, 0x94, 0x00, 0x00, 0x00, 0x74, 0x00, 0x00, 0x00, 0x04, 0x00, 0x00, 0x00, 0xfa, 0xd1, 0xff, 0xff, 0x04, 0x00, 0x00, 0x00, 0x60, 0x00, 0x00, 0x00, 0x10, 0x00, 0x00, 0x00, 0x00, 0x00, 0x00, 0x00, 0x08, 0x00, 0x0e, 0x00, 0x08, 0x00, 0x04, 0x00, 0x08, 0x00, 0x00, 0x00, 0x10, 0x00, 0x00, 0x00, 0x24, 0x00, 0x00, 0x00, 0x00, 0x00, 0x06, 0x00, 0x08, 0x00, 0x04, 0x00, 0x06, 0x00, 0x00, 0x00, 0x04, 0x00, 0x00, 0x00, 0x00, 0x00, 0x00, 0x00, 0x0c, 0x00, 0x18, 0x00, 0x14, 0x00, 0x10, 0x00, 0x0c, 0x00, 0x04, 0x00, 0x0c, 0x00, 0x00, 0x00, 0x81, 0x03, 0x33, 0x39, 0x2b, 0xed, 0xdd, 0x48, 0x02, 0x00, 0x00, 0x00, 0x02, 0x00, 0x00, 0x00, 0x04, 0x00, 0x00, 0x00, 0x06, 0x00, 0x00, 0x00, 0x32, 0x2e, 0x31, 0x37, 0x2e, 0x30, 0x00, 0x00, 0x66, 0xd2, 0xff, 0xff, 0x04, 0x00, 0x00, 0x00, 0x10, 0x00, 0x00, 0x00, 0x31, 0x2e, 0x35, 0x2e, 0x30, 0x00, 0x00, 0x00, 0x00, 0x00, 0x00, 0x00, 0x00, 0x00, 0x00, 0x00, 0x90, 0xcd, 0xff, 0xff, 0x94, 0xcd, 0xff, 0xff, 0x98, 0xcd, 0xff, 0xff, 0x9c, 0xcd, 0xff, 0xff, 0x92, 0xd2, 0xff, 0xff, 0x04, 0x00, 0x00, 0x00, 0x00, 0x09, 0x00, 0x00, 0x79, 0xe2, 0xc8, 0xbe, 0x29, 0xd9, 0x8f, 0xbe, 0x46, 0x62, 0x2a, 0xbe, 0x21, 0x1e, 0x92, 0xbd, 0x08, 0xec, 0x98, 0x3e, 0x59, 0xc7, 0x24, 0x3e, 0x58, 0x5d, 0x9e, 0xbe, 0x3b, 0xce, 0x52, 0x3e, 0x28, 0x3d, 0xf5, 0x3d, 0xd3, 0x12, 0x22, 0xbe, 0x81, 0xc3, 0xd7, 0x3d, 0xce, 0x1b, 0x83, 0x3d, 0xb8, 0x1b, 0x98, 0x3d, 0x82, 0x90, 0x4d, 0xbc, 0x24, 0x84, 0x82, 0x3d, 0xae, 0x30, 0xa4, 0xbe, 0xfa, 0x2e, 0x01, 0xbf, 0x14, 0xa9, 0x8b, 0xbe, 0x90, 0xbb, 0xa3, 0xbe, 0xde, 0xe6, 0xe6, 0xbd, 0x5e, 0xc4, 0x80, 0xbd, 0xd4, 0x16, 0x5e, 0x3b, 0x23, 0xfd, 0xf7, 0x3d, 0x0c, 0xd1, 0xe7, 0x3d, 0x23, 0xff, 0x30, 0xbe, 0x55, 0x91, 0x21, 0x3f, 0x02, 0x00, 0x1f, 0x3e, 0x99, 0x94, 0x79, 0xbd, 0x31, 0x91, 0xd5, 0xbe, 0x22, 0x8f, 0x49, 0x3e, 0x71, 0xc0, 0x29, 0xbd, 0x3e, 0x0a, 0x18, 0x3c, 0xcc, 0xc6, 0xf5, 0x3c, 0xb6, 0xdf, 0x79, 0x3e, 0x81, 0xae, 0x01, 0x3e, 0x95, 0x6d, 0x8e, 0x3e, 0x61, 0x7d, 0x55, 0xbe, 0xfe, 0x53, 0xe8, 0xbd, 0xa6, 0xd2, 0x72, 0x3e, 0xa4, 0xe1, 0xfc, 0xbd, 0x0a, 0xd5, 0x9f, 0x3c, 0x40, 0x8d, 0xca, 0x3c, 0x4e, 0x62, 0x15, 0xbf, 0x00, 0xe5, 0xeb, 0xbe, 0xf8, 0x51, 0xc3, 0x3d, 0x87, 0xe8, 0x98, 0x3e, 0x22, 0x11, 0xa9, 0x3d, 0x68, 0x3b, 0x76, 0xbd, 0xd8, 0x0d, 0xa9, 0xbd, 0x00, 0x1a, 0x93, 0xbd, 0x80, 0x93, 0x54, 0xbd, 0x63, 0x6b, 0x45, 0x3d, 0x10, 0x04, 0x7b, 0x3f, 0x9a, 0x50, 0x20, 0xbe, 0x3c, 0x22, 0xa6, 0xbe, 0x6d, 0xf9, 0x03, 0x3e, 0x4f, 0x7f, 0x1c, 0x3e, 0x29, 0xa5, 0x8e, 0xbc, 0xae, 0x33, 0x9d, 0xbd, 0xcc, 0xb6, 0xd0, 0xbd, 0x7b, 0x80, 0x9f, 0xbd, 0x2b, 0x09, 0xe4, 0xbe, 0x58, 0xd1, 0x94, 0x3d, 0x1c, 0xd6, 0xe8, 0x3e, 0xf8, 0xf1, 0x7a, 0x3e, 0xfa, 0xd0, 0xac, 0x3e, 0xf8, 0x9b, 0x01, 0xbe, 0xe6, 0x7a, 0xc4, 0x3c, 0xe7, 0x28, 0xe6, 0xbb, 0xae, 0x2e, 0x48, 0xbc, 0x0c, 0x51, 0x6e, 0xbd, 0x58, 0x61, 0x24, 0xbe, 0x21, 0x9f, 0x50, 0xbe, 0xd8, 0xee, 0x79, 0x3c, 0x96, 0x34, 0x78, 0x3e, 0x1f, 0xf7, 0x64, 0xbe, 0x96, 0xd8, 0xfe, 0x3a, 0x31, 0xf5, 0x6b, 0xbe, 0x61, 0x9c, 0xcf, 0xbd, 0x8c, 0xe9, 0xda, 0x3c, 0x90, 0xec, 0xa4, 0x3c, 0x8d, 0x4c, 0x30, 0xbe, 0xe3, 0x02, 0x83, 0x3e, 0x46, 0x9b, 0x72, 0x3d, 0x62, 0x2f, 0xfc, 0xbd, 0x77, 0xd2, 0x80, 0x3e, 0x79, 0x53, 0xe9, 0x3d, 0x07, 0x4c, 0x25, 0x3f, 0x77, 0x1f, 0x28, 0x3e, 0xd0, 0xca, 0x08, 0x3d, 0xff, 0xb5, 0xdd, 0x3e, 0x19, 0x00, 0x49, 0xbe, 0x3f, 0xf0, 0x57, 0xbd, 0xe9, 0x74, 0xa9, 0xbd, 0xf9, 0x4a, 0x89, 0xba, 0x0c, 0x79, 0x45, 0xbc, 0x18, 0xfd, 0x71, 0xbe, 0xeb, 0x9e, 0xd9, 0xbd, 0x80, 0x23, 0xd6, 0x3d, 0x41, 0xf1, 0xc9, 0xbe, 0x62, 0x96, 0x03, 0xbe, 0xa9, 0xc5, 0x83, 0x3d, 0x85, 0x02, 0xa4, 0xbe, 0x2a, 0x1e, 0x6b, 0x3d, 0xb7, 0x3e, 0xa5, 0xbe, 0xe9, 0x82, 0x70, 0xbd, 0xfd, 0xc4, 0x28, 0x3d, 0x68, 0x3a, 0x70, 0x3d, 0xca, 0x6b, 0x4b, 0x3e, 0xc7, 0xd6, 0xc7, 0x3e, 0x90, 0xbc, 0x3e, 0x3d, 0xc2, 0xb4, 0x2e, 0x3e, 0x72, 0x67, 0xb5, 0x3d, 0x33, 0x4c, 0xf4, 0x3d, 0x2e, 0x31, 0x14, 0xbf, 0xe6, 0xc6, 0x69, 0x3c, 0x18, 0x99, 0x87, 0x3d, 0x15, 0xe5, 0x29, 0xbe, 0x9f, 0xb5, 0xbd, 0xbd, 0xd2, 0xd8, 0x45, 0xbd, 0x7c, 0xc9, 0xa8, 0x3e, 0xf8, 0xc9, 0x28, 0xbe, 0x23, 0xe0, 0x2e, 0x3c, 0xab, 0x34, 0xf1, 0x3e, 0x68, 0xdf, 0x70, 0xbd, 0xb4, 0x9c, 0xb5, 0x3d, 0xf9, 0xf8, 0x46, 0x3f, 0x61, 0xd0, 0x9f, 0x3d, 0x44, 0x2b, 0x5d, 0xbd, 0xf1, 0x0f, 0x83, 0x3d, 0xcc, 0xfa, 0x3b, 0xbd, 0x4c, 0xe5, 0x19, 0xbc, 0xc4, 0x3c, 0xb1, 0x3e, 0x88, 0x9c, 0x38, 0xbd, 0x12, 0xef, 0x00, 0xbe, 0xa3, 0x76, 0xde, 0x3d, 0xd9, 0x26, 0x05, 0x3d, 0x82, 0x96, 0x68, 0x3d, 0x73, 0x17, 0x44, 0x3e, 0xde, 0x25, 0x73, 0x3c, 0xb8, 0xc2, 0xdf, 0x3c, 0x7c, 0x02, 0x36, 0xbf, 0xd1, 0x7a, 0x64, 0x3e, 0x7b, 0x3a, 0x8e, 0x3e, 0xdb, 0x84, 0xe4, 0x3e, 0x0b, 0xe3, 0x13, 0x3e, 0xbb, 0xd1, 0xce, 0xbd, 0xe2, 0x17, 0xa6, 0xbe, 0x2f, 0x9a, 0x6d, 0x3d, 0xb7, 0x0c, 0xa1, 0x3d, 0xaa, 0x6c, 0x95, 0x3e, 0x1c, 0x81, 0x8a, 0xbe, 0x00, 0x6a, 0xfe, 0xbb, 0x11, 0x92, 0x6a, 0xbd, 0xd7, 0xc3, 0xb3, 0x3d, 0x26, 0x64, 0x70, 0x3d, 0xba, 0x00, 0x31, 0x3d, 0x76, 0xba, 0x05, 0x3d, 0xfc, 0x15, 0x8a, 0x3d, 0x14, 0xcf, 0x06, 0xbf, 0x0f, 0x15, 0xee, 0xbe, 0x52, 0x9b, 0x6c, 0x3e, 0x07, 0xc1, 0x6b, 0x3d, 0xec, 0x9d, 0xb4, 0xbc, 0x04, 0x8e, 0xdb, 0xbc, 0x83, 0x3b, 0x92, 0xbd, 0xcb, 0xfe, 0x43, 0x3d, 0xde, 0xc6, 0x39, 0xbd, 0xc5, 0x1f, 0xc8, 0xbe, 0xf9, 0x35, 0xee, 0xbe, 0xfe, 0xa6, 0x32, 0x3e, 0xfb, 0xd1, 0xde, 0xbe, 0x7c, 0xe0, 0xfb, 0xbd, 0xcf, 0x39, 0x01, 0xbe, 0x03, 0x0b, 0x1f, 0x3e, 0x5b, 0x1f, 0x12, 0xbe, 0x1e, 0x2a, 0x1d, 0x3d, 0x8b, 0xe8, 0x9e, 0x3e, 0x34, 0xae, 0xb4, 0xbd, 0x00, 0x36, 0xbc, 0xbc, 0x82, 0xd3, 0x86, 0x3e, 0x6a, 0xab, 0x68, 0xbc, 0x66, 0x42, 0x51, 0x3e, 0xa1, 0x90, 0x86, 0x3d, 0x55, 0x79, 0x8e, 0x3a, 0xd7, 0xa1, 0x41, 0x3e, 0x79, 0x33, 0x50, 0x3e, 0xd7, 0x2f, 0x8d, 0xbe, 0xa0, 0x97, 0x91, 0xbe, 0xeb, 0xef, 0xe8, 0x3d, 0x9f, 0xd4, 0xde, 0x3e, 0x2e, 0x37, 0xcb, 0x3c, 0x01, 0x40, 0x83, 0x3e, 0x17, 0x2f, 0xb1, 0x3d, 0xb9, 0xac, 0x08, 0xbe, 0x06, 0xe0, 0xed, 0x3d, 0x13, 0x5c, 0xf7, 0xbd, 0x90, 0xd7, 0xc0, 0x3d, 0x9b, 0x16, 0x10, 0x3d, 0x1f, 0x36, 0xa1, 0xbd, 0x4e, 0x21, 0x5e, 0x3c, 0x66, 0x9a, 0x37, 0x3e, 0xe2, 0x41, 0x34, 0x3e, 0xda, 0xa1, 0x7b, 0x3e, 0x91, 0x68, 0x35, 0xbf, 0x3b, 0x9b, 0xda, 0x3d, 0xc2, 0x3f, 0x7a, 0xbe, 0x3b, 0x3f, 0x61, 0xbd, 0x10, 0x4e, 0x2f, 0x3e, 0x3f, 0x09, 0x87, 0x3d, 0x34, 0x3d, 0x80, 0x3e, 0xe5, 0x94, 0xb5, 0x3b, 0x81, 0xcd, 0x62, 0x3e, 0x8c, 0x0b, 0x07, 0xbf, 0x92, 0x90, 0xfc, 0x3e, 0x01, 0xc3, 0x82, 0xbe, 0xea, 0x74, 0x05, 0xbe, 0x66, 0x02, 0x3e, 0x3c, 0x52, 0x74, 0x03, 0xbd, 0xdb, 0xe7, 0x8e, 0x3d, 0xd6, 0x4a, 0xb0, 0x3d, 0x45, 0xff, 0x3c, 0x3e, 0x0a, 0xe4, 0x14, 0x3f, 0xfc, 0x37, 0x78, 0xbe, 0x26, 0x06, 0x00, 0xbe, 0x07, 0x80, 0x10, 0x3e, 0xe6, 0x24, 0xba, 0x3d, 0xf3, 0x99, 0xaf, 0xbc, 0xab, 0x65, 0x86, 0x3d, 0x89, 0x26, 0x24, 0xbd, 0xf3, 0xf9, 0x34, 0x3d, 0xea, 0xac, 0x24, 0x3f, 0xb6, 0xbc, 0x11, 0x3f, 0x8c, 0x7e, 0x6f, 0xbd, 0x8a, 0x91, 0xb4, 0xbc, 0x86, 0x2e, 0x65, 0x3d, 0x32, 0xfc, 0xb2, 0xbe, 0xc6, 0xeb, 0xec, 0x3d, 0x9a, 0x61, 0xb1, 0x3c, 0xa3, 0x11, 0xec, 0x3d, 0x95, 0x2a, 0x7b, 0xbe, 0x74, 0xc5, 0x06, 0x3f, 0x20, 0xce, 0x2b, 0xbc, 0x3c, 0x46, 0x1d, 0xbe, 0x79, 0x5f, 0x72, 0xbe, 0x57, 0xca, 0x2a, 0xbe, 0x37, 0x5a, 0xed, 0xbc, 0x50, 0x3b, 0x6d, 0xbe, 0xd8, 0x4e, 0x8d, 0xbe, 0x1e, 0x03, 0x2d, 0xbe, 0x32, 0x9c, 0xd2, 0x3e, 0x1a, 0x57, 0x63, 0x3e, 0x8f, 0x83, 0xcf, 0xbc, 0xad, 0x83, 0x78, 0x3e, 0x23, 0xc6, 0xaa, 0xbc, 0xee, 0x0a, 0x91, 0x3d, 0xd2, 0x28, 0x34, 0xbd, 0xf4, 0x65, 0x0c, 0x3b, 0x7e, 0xb1, 0x1e, 0x3f, 0xd9, 0xab, 0x2c, 0x3f, 0xbe, 0x6f, 0x87, 0xbe, 0xbb, 0x88, 0x3d, 0xbe, 0x20, 0x97, 0xeb, 0xbd, 0x69, 0x6a, 0xa2, 0xbb, 0x8c, 0xd9, 0xc5, 0x3d, 0x84, 0x52, 0x0d, 0x3e, 0x1c, 0xfc, 0x83, 0xbe, 0xe9, 0x09, 0x04, 0xbe, 0xdc, 0x69, 0x13, 0x3f, 0x11, 0x56, 0x87, 0x3e, 0x77, 0x4d, 0xdd, 0xbd, 0xa9, 0x02, 0x9c, 0xbd, 0xbd, 0x3c, 0x3c, 0xbe, 0x6a, 0xc1, 0x3c, 0xbb, 0xbe, 0xaa, 0x72, 0xbe, 0xe6, 0xdc, 0x2b, 0xbd, 0xce, 0x1a, 0x7c, 0xbe, 0x21, 0x95, 0xce, 0x3e, 0x78, 0x64, 0x75, 0xbd, 0xb5, 0xb6, 0x5c, 0x3e, 0xbd, 0x30, 0x92, 0xbc, 0x93, 0x2a, 0xe0, 0xbc, 0x9a, 0xa3, 0x08, 0xbe, 0x5b, 0xa8, 0x08, 0xbe, 0xea, 0x24, 0x39, 0xbe, 0xba, 0x19, 0x88, 0xbe, 0xb4, 0x95, 0x90, 0x3e, 0x00, 0xf0, 0xf7, 0x3c, 0x82, 0x2e, 0x81, 0x3e, 0x8e, 0x0c, 0x0d, 0xbc, 0x16, 0x6b, 0xda, 0xbc, 0x0d, 0x7f, 0x8e, 0x3c, 0x26, 0xd6, 0x50, 0xbc, 0x56, 0xae, 0x96, 0x3c, 0x6a, 0xb9, 0x1a, 0x3f, 0xb0, 0xaa, 0x57, 0x3e, 0xfc, 0x7d, 0xb3, 0x3d, 0x55, 0x05, 0xa3, 0xbe, 0xe9, 0xd7, 0x3d, 0xbe, 0xdc, 0x50, 0x6c, 0xbd, 0xf1, 0xbf, 0x8b, 0xbe, 0x61, 0x19, 0x91, 0xbe, 0xcd, 0xf9, 0xff, 0xbe, 0xcc, 0xe0, 0x4e, 0xbe, 0x96, 0x8c, 0x59, 0x3d, 0x48, 0xd2, 0x38, 0x3e, 0x5a, 0x23, 0x5f, 0xbe, 0xe8, 0x7c, 0x78, 0x3d, 0xef, 0x1f, 0x8e, 0x3d, 0xd7, 0x1d, 0x3a, 0x3e, 0x95, 0xc2, 0xc3, 0xbe, 0x2e, 0xbf, 0x0b, 0xbe, 0x05, 0x4a, 0x85, 0x3e, 0x14, 0xd6, 0x31, 0x3e, 0xf9, 0xb6, 0x88, 0xbe, 0x39, 0xa1, 0xe2, 0x3d, 0x64, 0xc2, 0xcd, 0xbe, 0x90, 0x85, 0xd0, 0xbc, 0x5d, 0xec, 0x08, 0xbe, 0x84, 0xb4, 0xbf, 0xba, 0x9a, 0xbe, 0xbd, 0xbd, 0x20, 0x17, 0x54, 0x3e, 0x8e, 0x8e, 0xe8, 0x3c, 0x69, 0xca, 0x8d, 0x3e, 0x52, 0x16, 0xc9, 0xbd, 0x76, 0xdd, 0x52, 0xbd, 0xed, 0xd6, 0x5b, 0x3d, 0xd0, 0x93, 0x41, 0x3d, 0xd5, 0xe8, 0x6c, 0xbe, 0x31, 0x0a, 0x34, 0xbe, 0xf4, 0x6e, 0x17, 0x3f, 0x92, 0x8b, 0xec, 0x3e, 0x54, 0x82, 0xfc, 0x3d, 0x59, 0xf4, 0x02, 0xbe, 0xd1, 0x38, 0x20, 0xbe, 0x4e, 0x10, 0xab, 0x3d, 0x83, 0xe0, 0xa4, 0x3d, 0x5f, 0xe2, 0x19, 0x3e, 0xb7, 0xfa, 0x5a, 0xbc, 0x4d, 0x9b, 0x2d, 0xbe, 0x44, 0xa8, 0x13, 0x3f, 0x32, 0x2b, 0xab, 0xbd, 0x2e, 0xdd, 0x2d, 0xbe, 0x28, 0x09, 0x89, 0x3e, 0x41, 0xeb, 0x30, 0x3c, 0x52, 0xc7, 0x28, 0xbe, 0x02, 0x39, 0xe3, 0x3c, 0x51, 0x42, 0x05, 0x3e, 0xab, 0x31, 0x83, 0x3e, 0x26, 0xe5, 0xbc, 0x3e, 0x54, 0xb7, 0x13, 0x3e, 0xf5, 0xd0, 0x19, 0x3f, 0x1d, 0x7f, 0x83, 0xbe, 0x83, 0xb3, 0x82, 0xbd, 0x7f, 0x05, 0x90, 0xbd, 0xcb, 0x33, 0xbc, 0x3c, 0x20, 0x08, 0x4a, 0xbd, 0x41, 0xbe, 0xac, 0x3d, 0x3c, 0x27, 0x55, 0x3d, 0x78, 0x90, 0x4f, 0x3d, 0xd1, 0x39, 0x42, 0xbb, 0xe0, 0x96, 0xa4, 0xbd, 0xd7, 0x7d, 0xcf, 0x3c, 0x2f, 0xa1, 0x0b, 0xbe, 0x39, 0x08, 0x37, 0xbd, 0x8b, 0xa4, 0x7f, 0x3e, 0x3e, 0x4f, 0x18, 0xbe, 0x9a, 0x89, 0x0e, 0x3f, 0x38, 0x25, 0x51, 0x3d, 0x6a, 0xa8, 0x62, 0xbd, 0x24, 0xf9, 0x47, 0xbe, 0xb4, 0x92, 0x4c, 0x3e, 0xd3, 0xfe, 0xc0, 0x3d, 0x89, 0x87, 0x3b, 0xbd, 0x8a, 0xc4, 0xa7, 0x3c, 0x33, 0xab, 0x6a, 0xbe, 0x04, 0x75, 0x09, 0x3f, 0x82, 0xdd, 0x87, 0xbe, 0x94, 0x7a, 0xde, 0x3d, 0x9e, 0x74, 0x05, 0x3c, 0x5f, 0x7a, 0xb0, 0xbc, 0x4c, 0xb5, 0xcc, 0xbc, 0x69, 0x43, 0x14, 0xbd, 0x3c, 0x8a, 0xe3, 0xbb, 0x9a, 0xd8, 0xb5, 0xbe, 0x1f, 0xa0, 0x14, 0xbe, 0x45, 0x31, 0x72, 0xbe, 0x7e, 0xdb, 0x84, 0x3e, 0x09, 0xce, 0x94, 0x3e, 0x76, 0x0d, 0x6d, 0xbd, 0xf3, 0x32, 0x5f, 0xbd, 0xb6, 0x4f, 0x12, 0xbb, 0x41, 0xe6, 0x27, 0xbc, 0x45, 0x51, 0x75, 0x3e, 0x55, 0x9d, 0x0e, 0x3f, 0xde, 0x95, 0x2f, 0xbe, 0x91, 0xdd, 0xc7, 0x3e, 0xbe, 0x66, 0x12, 0xbe, 0x53, 0x0c, 0x95, 0xbd, 0x97, 0xb0, 0x29, 0x3e, 0xbb, 0x64, 0x19, 0xbd, 0x29, 0x77, 0x37, 0xbd, 0x91, 0x82, 0xf0, 0xbe, 0xd2, 0xaf, 0xa1, 0xbe, 0x22, 0x58, 0x04, 0x3e, 0xea, 0xd4, 0x6c, 0xbe, 0x61, 0x1d, 0x9e, 0x3d, 0x43, 0x60, 0xcb, 0x3d, 0x95, 0xa1, 0xc4, 0xbc, 0xc6, 0x2a, 0xaa, 0x3d, 0xe1, 0x6c, 0x5b, 0x3e, 0x68, 0x2b, 0xe0, 0x3e, 0xaf, 0x55, 0xb6, 0xbe, 0xcd, 0x27, 0x27, 0xbe, 0xdb, 0xd4, 0x19, 0xbe, 0xb5, 0x90, 0xda, 0x3e, 0x78, 0x6c, 0x10, 0x3e, 0x2e, 0xfb, 0xeb, 0xbd, 0x90, 0x47, 0x03, 0x3e, 0x35, 0x8a, 0xf6, 0x3d, 0x60, 0x08, 0x00, 0xbf, 0x32, 0xa0, 0x58, 0x3d, 0x1c, 0xe3, 0x16, 0x3e, 0x60, 0x8a, 0x30, 0x3e, 0xba, 0x83, 0x8a, 0xbc, 0x59, 0x11, 0x10, 0x3d, 0x98, 0x20, 0xf8, 0x3d, 0xf9, 0xb7, 0xa0, 0xbc, 0x4d, 0xbd, 0xa2, 0x3c, 0x01, 0xe0, 0x42, 0xbf, 0x8e, 0x0f, 0xce, 0x3c, 0xa0, 0xbc, 0xe1, 0xbc, 0xe5, 0x00, 0x3a, 0x3e, 0x8b, 0x33, 0x8e, 0x3e, 0xde, 0x77, 0xaa, 0xbd, 0x0d, 0x8e, 0x4b, 0xbc, 0x28, 0x90, 0x09, 0x3e, 0xcd, 0xb4, 0xb4, 0xbc, 0x11, 0x3f, 0x18, 0xbf, 0xb8, 0xcc, 0x8c, 0xbd, 0x82, 0x6b, 0x76, 0x3e, 0xa0, 0xdc, 0xe0, 0xbe, 0x16, 0x3d, 0x86, 0xbd, 0x9d, 0xa1, 0x81, 0x3d, 0xf5, 0x46, 0xb7, 0xbd, 0xa4, 0xb7, 0x60, 0x3d, 0xc3, 0x1b, 0x21, 0xbe, 0x84, 0x64, 0x8c, 0x3b, 0xd7, 0x03, 0xf5, 0xbe, 0x66, 0x51, 0x50, 0x3e, 0x60, 0x17, 0xb5, 0xbe, 0x75, 0xbf, 0xdc, 0xbc, 0xfb, 0xa3, 0xd5, 0x3e, 0x2f, 0xbf, 0xbe, 0xbd, 0xcf, 0x39, 0x9f, 0xbe, 0xf3, 0x91, 0xe2, 0xbd, 0xcb, 0x80, 0xc4, 0xbe, 0xba, 0xad, 0x76, 0xbe, 0x7a, 0xa2, 0xec, 0xbd, 0xc7, 0x43, 0xfa, 0xbd, 0xf9, 0x92, 0x8a, 0x3d, 0x1e, 0x11, 0x91, 0x3d, 0x7a, 0x5e, 0x79, 0x3c, 0xf2, 0xe8, 0x19, 0xbf, 0xfe, 0xf2, 0x51, 0xbe, 0xef, 0xcb, 0x1d, 0xbc, 0x10, 0xa5, 0x08, 0x3f, 0x4e, 0xe0, 0xad, 0xbd, 0x64, 0x2b, 0xa6, 0x3e, 0xc9, 0x89, 0x22, 0xbe, 0x0f, 0x12, 0x1d, 0xbe, 0x1b, 0x7c, 0x62, 0xbe, 0x4f, 0x9b, 0xc5, 0x3e, 0xe8, 0xd0, 0x9e, 0x3d, 0x25, 0x27, 0xe5, 0x3d, 0x20, 0x34, 0x95, 0x3e, 0x17, 0xea, 0x86, 0xbe, 0xfd, 0x27, 0xdb, 0x3e, 0x7d, 0x34, 0x48, 0x3e, 0x09, 0x9a, 0x36, 0xbc, 0xbd, 0x0e, 0x8e, 0xbe, 0xb0, 0xcb, 0x86, 0xbc, 0x86, 0x35, 0xba, 0x3c, 0x68, 0xac, 0x02, 0x3f, 0xfe, 0x20, 0x51, 0xbd, 0x18, 0x39, 0x7e, 0xbd, 0x7b, 0x57, 0x1e, 0x3f, 0x2f, 0x53, 0xf6, 0xbb, 0x62, 0x9f, 0x19, 0xbd, 0x76, 0xc2, 0x16, 0x3e, 0xc0, 0x5f, 0x9b, 0xbd, 0xef, 0x24, 0x76, 0x3d, 0x17, 0x2c, 0xbc, 0x3e, 0x2c, 0x36, 0x20, 0x3e, 0x5e, 0xc6, 0x96, 0xbd, 0x38, 0x35, 0x02, 0x3d, 0x62, 0x3f, 0xdc, 0x3d, 0xb9, 0xcc, 0x4e, 0x3c, 0x14, 0x4d, 0x90, 0x3d, 0x25, 0xc3, 0xe2, 0xbc, 0xbb, 0x02, 0x6c, 0x3d, 0x5f, 0xd6, 0x56, 0x3f, 0x00, 0x39, 0x25, 0x3f, 0x34, 0xed, 0x9f, 0x3d, 0x60, 0x4c, 0x10, 0x3e, 0xb6, 0x44, 0x2e, 0xbe, 0x1d, 0xf2, 0x38, 0x3b, 0xd0, 0xa0, 0xaa, 0x3c, 0x1b, 0x1d, 0xf3, 0x3c, 0x4b, 0xe7, 0xda, 0xbd, 0xfc, 0xe7, 0x0f, 0xbf, 0xea, 0x1f, 0xd1, 0xbe, 0x58, 0x7e, 0x2e, 0xbe, 0x5f, 0xeb, 0x8d, 0xbd, 0x79, 0x2c, 0xa1, 0x3e, 0xdb, 0x74, 0xba, 0xbe, 0x97, 0xd2, 0xfb, 0x3d, 0x79, 0xb0, 0x42, 0xbe, 0xe1, 0x42, 0x71, 0xbd, 0xf8, 0x7c, 0xb5, 0x3e, 0x43, 0x4f, 0xce, 0x3e, 0x8c, 0xee, 0xe9, 0x3d, 0xaf, 0x3a, 0x9f, 0xbe, 0xe9, 0xe9, 0x0f, 0xbd, 0x04, 0xa7, 0x55, 0x3e, 0x09, 0xd4, 0x85, 0xbd, 0xec, 0x8b, 0x96, 0x3d, 0xfc, 0x55, 0x7f, 0x3e, 0xf5, 0x99, 0xcd, 0x3e, 0xfc, 0xbd, 0x89, 0xbb, 0x04, 0x22, 0x0b, 0x3e, 0x53, 0xa5, 0x51, 0xbe, 0xb5, 0xee, 0x58, 0xbe, 0x8e, 0x69, 0xf6, 0x3d, 0x31, 0x26, 0xa3, 0xbb, 0xc0, 0x1e, 0x0b, 0x3d, 0xa5, 0x6e, 0x65, 0xbd, 0x1d, 0x4a, 0x4a, 0xbe, 0x6d, 0x21, 0x12, 0x3f, 0x00, 0xbb, 0x42, 0xbc, 0xa0, 0x78, 0xa9, 0xbd, 0x83, 0x6f, 0x6d, 0xbd, 0xf1, 0xa4, 0x55, 0xbc, 0xab, 0xb3, 0xa1, 0xbc, 0x5f, 0x1b, 0x29, 0x3d, 0x96, 0x9a, 0xe0, 0x3d, 0x43, 0xcf, 0xc6, 0xbe, 0xe3, 0xce, 0xd4, 0x3e, 0xf2, 0x28, 0x3c, 0xbe, 0x54, 0x38, 0x64, 0x3e, 0x44, 0x00, 0xc2, 0xbe, 0x95, 0x77, 0xd1, 0xbd, 0xee, 0x5f, 0x4c, 0xbe, 0x7f, 0x93, 0x81, 0x3e, 0xf5, 0x44, 0x0d, 0xbd, 0x1f, 0xdf, 0x96, 0x3e, 0x59, 0x49, 0x27, 0x3e, 0x8e, 0xe9, 0xf4, 0xbd, 0xc1, 0xa6, 0x42, 0x3e, 0xe1, 0xbc, 0x9c, 0xbd, 0xde, 0x8b, 0xf5, 0x3c, 0x29, 0x1c, 0x9c, 0xbd, 0xbe, 0xbf, 0x4e, 0x3d, 0x0e, 0xa4, 0x4f, 0xb9, 0x70, 0xaa, 0x1d, 0x3f, 0x81, 0xa3, 0x02, 0x3f, 0xea, 0x6b, 0x31, 0x3e, 0x47, 0xc2, 0x04, 0xbe, 0xed, 0xdb, 0x9d, 0x3d, 0xe3, 0x2b, 0x05, 0xbe, 0x69, 0x91, 0xcc, 0x3d, 0x61, 0x78, 0x15, 0xbe, 0x9c, 0x73, 0xe7, 0xbb, 0x7a, 0x09, 0x94, 0xbe, 0x2a, 0x86, 0xf2, 0x3e, 0xec, 0x4e, 0x0b, 0x3e, 0x9e, 0xdb, 0xff, 0xff, 0x04, 0x00, 0x00, 0x00, 0x00, 0x01, 0x00, 0x00, 0xd9, 0x39, 0xa1, 0xbe, 0xf7, 0x8e, 0xd9, 0x3d, 0xac, 0x12, 0x05, 0xbf, 0xa7, 0xb2, 0x0e, 0xbe, 0x88, 0xf2, 0x1f, 0xbe, 0x00, 0x51, 0x93, 0x3d, 0x3e, 0xef, 0x16, 0x3c, 0x22, 0x31, 0x20, 0xbe, 0xc2, 0xe4, 0xb7, 0xbd, 0xcd, 0x06, 0x77, 0xbe, 0x96, 0x32, 0x57, 0xbe, 0xc2, 0x60, 0x8a, 0xbc, 0x0d, 0x88, 0x51, 0xbe, 0x1d, 0x63, 0xa9, 0xbe, 0x6e, 0x39, 0xce, 0xbe, 0x6e, 0x1d, 0x69, 0xbd, 0x83, 0x19, 0xb8, 0xbe, 0xe3, 0x9b, 0x4c, 0x3e, 0x30, 0xf7, 0xec, 0x3d, 0x1d, 0x52, 0x1b, 0xbe, 0xd9, 0xb6, 0x82, 0x3d, 0x7a, 0x21, 0xe9, 0xbe, 0xb1, 0x3a, 0x4d, 0x3d, 0x9b, 0xe6, 0x93, 0x3c, 0x8f, 0x80, 0xc1, 0xbe, 0xe5, 0xed, 0x32, 0xbe, 0x59, 0x61, 0x10, 0xbf, 0x5c, 0x71, 0xab, 0xbe, 0xb3, 0x20, 0x1c, 0xbe, 0x3a, 0x13, 0x00, 0xbf, 0x87, 0xf7, 0xd6, 0xbe, 0x8a, 0x20, 0xba, 0x3e, 0x7a, 0x1a, 0x07, 0xbf, 0x98, 0x01, 0x27, 0xbe, 0x92, 0x5d, 0x85, 0xbe, 0x44, 0x02, 0x09, 0xbf, 0x77, 0x5d, 0x22, 0xbe, 0x40, 0x6b, 0x08, 0xbf, 0x83, 0x68, 0x06, 0x3d, 0x2f, 0xbb, 0x26, 0xbf, 0x41, 0x28, 0x09, 0xbf, 0x40, 0x97, 0x18, 0xbf, 0xb9, 0x53, 0xab, 0x3e, 0xd9, 0x9c, 0xd8, 0x3d, 0xc9, 0x7c, 0x84, 0x3c, 0x1c, 0x2d, 0xbd, 0xbe, 0x1d, 0x58, 0xcb, 0xbd, 0x39, 0xaa, 0xdb, 0xbd, 0x43, 0x71, 0xd3, 0xbd, 0x1d, 0x4a, 0x12, 0xbe, 0x08, 0xfd, 0x3f, 0xbe, 0xf0, 0x86, 0xba, 0xbc, 0xc9, 0x05, 0xc7, 0xbd, 0x0f, 0x67, 0x00, 0xbf, 0x44, 0xc5, 0xb9, 0xbe, 0xbf, 0x23, 0x73, 0xbe, 0xa7, 0xb7, 0x20, 0xbe, 0xfe, 0x84, 0x9d, 0xbe, 0x31, 0xdb, 0x2e, 0xbe, 0x63, 0xbf, 0x0c, 0xbf, 0xde, 0xa5, 0x11, 0xbf, 0x5f, 0xcf, 0xff, 0xbe, 0x96, 0xb8, 0x1a, 0xbe, 0x0c, 0xed, 0x16, 0xbf, 0xaa, 0xdc, 0xff, 0xff, 0x04, 0x00, 0x00, 0x00, 0x80, 0x00, 0x00, 0x00, 0x6c, 0x5e, 0xbf, 0xbe, 0x09, 0x41, 0x61, 0x3e, 0x44, 0x41, 0x2b, 0x3e, 0x8f, 0x7f, 0x03, 0xbc, 0x6a, 0xa0, 0xf2, 0xbe, 0xcc, 0x49, 0x2c, 0x3f, 0xeb, 0x7a, 0xd5, 0x3e, 0x64, 0x4a, 0xf3, 0xbd, 0x25, 0xe9, 0x75, 0xbd, 0xbf, 0xbc, 0xee, 0x3e, 0xad, 0x72, 0x07, 0xbe, 0xe1, 0x23, 0x50, 0xbe, 0x8b, 0x0b, 0x21, 0xbd, 0xc5, 0x7c, 0x86, 0x3c, 0x80, 0xd3, 0x84, 0xbe, 0x82, 0x67, 0x0f, 0xbf, 0x54, 0x4b, 0xd4, 0xbd, 0x5e, 0xd5, 0x2c, 0x3d, 0x5d, 0xed, 0xda, 0x3e, 0xb1, 0x73, 0x87, 0xbe, 0x80, 0x40, 0xe4, 0xbe, 0x2b, 0xfc, 0xbc, 0x3e, 0x60, 0xfe, 0x67, 0x3d, 0x30, 0x75, 0xcd, 0x3d, 0x20, 0xa8, 0x9e, 0x3d, 0x82, 0xe9, 0x37, 0x3e, 0x26, 0xe8, 0xbc, 0xbe, 0x76, 0xa2, 0x06, 0xbe, 0x65, 0x93, 0x1e, 0xbe, 0xe7, 0x1a, 0xbe, 0x3e, 0x85, 0x8d, 0x6d, 0x3d, 0x1c, 0x9c, 0x46, 0x3f, 0x36, 0xdd, 0xff, 0xff, 0x04, 0x00, 0x00, 0x00, 0x10, 0x00, 0x00, 0x00, 0x06, 0xdc, 0x00, 0xbf, 0xc5, 0x78, 0xbd, 0x3d, 0xa8, 0x11, 0xed, 0x3e, 0x95, 0xa6, 0xd1, 0xbd, 0x52, 0xdd, 0xff, 0xff, 0x04, 0x00, 0x00, 0x00, 0x00, 0x20, 0x00, 0x00, 0x98, 0xf1, 0x2d, 0xbe, 0x71, 0xee, 0xa2, 0xbd, 0xd1, 0x5c, 0x56, 0xbe, 0xe8, 0x84, 0x32, 0x3e, 0xee, 0xf1, 0x1d, 0xbe, 0x08, 0xd2, 0x63, 0xbf, 0x17, 0x3b, 0x9d, 0x3c, 0x60, 0x2b, 0x15, 0x3e, 0x60, 0xd7, 0x93, 0xbd, 0x59, 0x85, 0x21, 0x3e, 0x09, 0x07, 0x21, 0x3e, 0xc9, 0xd7, 0x8a, 0xbd, 0x44, 0x9c, 0xeb, 0xbe, 0x2c, 0x6e, 0xef, 0x3d, 0x39, 0x96, 0xd8, 0x3d, 0x9b, 0x07, 0xc8, 0xbb, 0x82, 0x76, 0x2f, 0x3c, 0x79, 0x47, 0x06, 0xbf, 0x63, 0xca, 0x0d, 0xbd, 0xf1, 0x1e, 0x48, 0x3e, 0x6a, 0xc4, 0x39, 0xbc, 0x84, 0x04, 0x46, 0x3c, 0x38, 0x68, 0xa4, 0xbe, 0x1f, 0x46, 0xeb, 0xbe, 0x90, 0x5f, 0x85, 0x3d, 0xa8, 0x27, 0xef, 0x3e, 0x88, 0xda, 0x43, 0xbe, 0xd0, 0xdb, 0x9b, 0x3d, 0x08, 0xc8, 0xf8, 0x3d, 0x24, 0xdb, 0x1f, 0xbe, 0xf9, 0x24, 0x4d, 0xbe, 0x17, 0x06, 0x29, 0xbf, 0xa5, 0x42, 0x03, 0x3f, 0x3a, 0x41, 0x41, 0xbe, 0xb6, 0x5c, 0x51, 0x3e, 0xc0, 0x66, 0x57, 0x3d, 0xd4, 0x17, 0x1b, 0x3d, 0x36, 0x1f, 0x3e, 0xbe, 0x3b, 0x0d, 0x84, 0x3e, 0x3b, 0x97, 0xdc, 0x3e, 0x4a, 0x6e, 0x15, 0x3e, 0xe9, 0x06, 0xaf, 0xbe, 0xce, 0x4b, 0x41, 0xbf, 0x7d, 0x09, 0x8d, 0x3e, 0xab, 0xb1, 0x61, 0x3e, 0x50, 0x07, 0x04, 0x3e, 0x45, 0x1a, 0xef, 0x3d, 0xc9, 0x6c, 0x11, 0xbc, 0x8e, 0xce, 0x13, 0xbe, 0xae, 0xba, 0x49, 0x3c, 0x7b, 0xf2, 0x35, 0xbe, 0x43, 0x13, 0xe4, 0xbe, 0xfe, 0x71, 0x46, 0x3e, 0x04, 0x37, 0x11, 0x3e, 0xda, 0xe5, 0x18, 0x3e, 0x9d, 0x54, 0xe8, 0x3e, 0xd3, 0x7d, 0xca, 0x3e, 0xd7, 0xb4, 0x24, 0x3e, 0xf2, 0x59, 0x7d, 0xbc, 0xe2, 0x0a, 0xf0, 0xbd, 0xb0, 0xf7, 0xd0, 0xbe, 0x56, 0x7b, 0x4c, 0x3e, 0xed, 0x00, 0xa4, 0x3e, 0x66, 0xa9, 0x0f, 0x3a, 0x0a, 0x22, 0x49, 0xbe, 0x32, 0x87, 0x74, 0xbc, 0x90, 0xed, 0xdc, 0x3d, 0xce, 0x4c, 0xc5, 0xbe, 0x97, 0xa4, 0xf7, 0xbe, 0x0d, 0xab, 0xb6, 0x3e, 0xa8, 0xc2, 0xa1, 0xbe, 0xab, 0xed, 0x71, 0xbe, 0x0d, 0x7c, 0x08, 0xbc, 0x91, 0x8a, 0x07, 0xbe, 0xfc, 0x86, 0x5a, 0x3e, 0x55, 0x65, 0xbc, 0xbe, 0x8f, 0x9f, 0x5e, 0x3e, 0x15, 0x75, 0x03, 0xbf, 0x3b, 0x44, 0xac, 0xbe, 0xb1, 0x54, 0x95, 0xbc, 0xf6, 0xe9, 0x8b, 0xbe, 0x99, 0xe2, 0x9f, 0x3d, 0x70, 0x8b, 0x86, 0x3e, 0x78, 0xd3, 0x16, 0xbf, 0x33, 0x5b, 0xa3, 0xbd, 0xbb, 0x80, 0xd1, 0xbe, 0x4b, 0xac, 0xb4, 0xba, 0x2d, 0x31, 0x1c, 0xbd, 0x20, 0xf1, 0xbe, 0xbe, 0x50, 0xa6, 0x63, 0x3e, 0x59, 0x05, 0xef, 0x3d, 0x48, 0xf0, 0xd0, 0xbd, 0x2b, 0x9b, 0x42, 0x3e, 0x71, 0xbf, 0x6b, 0xbe, 0x02, 0x79, 0x6c, 0x3d, 0x2f, 0x4a, 0xb9, 0x3e, 0x5a, 0x5a, 0xb6, 0xbe, 0x11, 0xd9, 0xca, 0xbd, 0xa2, 0x65, 0x1d, 0xbd, 0xab, 0x8e, 0x2f, 0xbd, 0x21, 0x1e, 0x89, 0x3e, 0xfc, 0xfc, 0xc2, 0x3d, 0x3e, 0xc4, 0x1b, 0x3d, 0x7a, 0x3f, 0x64, 0xbe, 0x64, 0x3c, 0x91, 0x3d, 0x42, 0xf2, 0x1f, 0x3e, 0xd4, 0x39, 0xde, 0x3e, 0xc6, 0xb5, 0xd5, 0x3e, 0x67, 0x95, 0x82, 0x3e, 0x77, 0x51, 0xfe, 0xbe, 0xdd, 0x87, 0xbe, 0xbe, 0x2c, 0x80, 0x03, 0x3e, 0x30, 0xa3, 0x9d, 0x3e, 0xc8, 0xc3, 0xbb, 0xbc, 0x4a, 0xed, 0xab, 0xbe, 0x5a, 0xa2, 0x47, 0x3e, 0x01, 0xd6, 0x73, 0xbe, 0x94, 0xc3, 0x59, 0xbd, 0xa4, 0x0a, 0xea, 0xbc, 0xfa, 0x91, 0x4f, 0x3e, 0x71, 0x32, 0xb8, 0x3d, 0xb9, 0xe9, 0xda, 0xbd, 0x8c, 0x52, 0xaa, 0xbe, 0xc8, 0x93, 0xe9, 0x3e, 0x79, 0x2e, 0xbd, 0x3e, 0x40, 0x05, 0xf6, 0xbc, 0xdd, 0x74, 0x1d, 0x3e, 0xe4, 0x1d, 0xba, 0x3e, 0x3d, 0x02, 0x9d, 0xbe, 0xe0, 0x58, 0x84, 0xbe, 0xdf, 0x2f, 0xdc, 0xbd, 0xab, 0x94, 0x93, 0xbe, 0xa9, 0x64, 0x51, 0xbe, 0x72, 0x79, 0x51, 0x3f, 0xd8, 0xa7, 0x13, 0xbe, 0xa8, 0xa2, 0xd3, 0xbd, 0x63, 0xf4, 0x1b, 0x3d, 0x3d, 0x7f, 0x95, 0x3b, 0x74, 0xcd, 0x22, 0x3e, 0x28, 0x51, 0x22, 0x3d, 0x72, 0x6f, 0xdf, 0x3e, 0x83, 0x4d, 0x9c, 0xbe, 0xc6, 0x17, 0x52, 0xbe, 0x9c, 0x1a, 0x15, 0x3f, 0x98, 0xe8, 0x46, 0xbe, 0x03, 0x14, 0x4d, 0x3e, 0x70, 0xa5, 0xab, 0x3e, 0x51, 0xde, 0xc4, 0xbe, 0x87, 0xef, 0x9d, 0xbd, 0x40, 0xd2, 0x1c, 0xbe, 0xcf, 0xe3, 0x89, 0x3e, 0x31, 0x60, 0x7e, 0x3e, 0xa5, 0xcf, 0x91, 0xbe, 0x7f, 0xfd, 0xa0, 0x3e, 0x86, 0xda, 0x93, 0xbe, 0x18, 0x8c, 0x52, 0xbe, 0x2c, 0x42, 0x64, 0x3e, 0xaf, 0x2c, 0xc4, 0xbe, 0x32, 0x9e, 0xab, 0x3d, 0x39, 0x52, 0xdb, 0x3e, 0xdd, 0xeb, 0x6c, 0xbe, 0x76, 0x79, 0xe9, 0xbd, 0x92, 0xab, 0x76, 0xbe, 0x5a, 0x31, 0x00, 0xbe, 0xe4, 0xce, 0x35, 0xbc, 0x5f, 0xa0, 0xa2, 0x3e, 0xf5, 0x40, 0xff, 0xbd, 0x04, 0x5f, 0xa0, 0xbd, 0x15, 0x1a, 0xd8, 0x3d, 0xe9, 0x78, 0x3b, 0x3e, 0x88, 0x20, 0x45, 0x3e, 0xb6, 0x0a, 0xfe, 0x3e, 0x3c, 0xe2, 0x90, 0x3e, 0x60, 0x3d, 0x10, 0xbf, 0x27, 0x6e, 0xcd, 0x3d, 0x76, 0x0a, 0x13, 0x3f, 0xe0, 0xf5, 0x75, 0x3e, 0xe5, 0x95, 0x73, 0x3d, 0xc4, 0x3d, 0x3d, 0xbe, 0xdd, 0xaf, 0x28, 0x3d, 0xed, 0x70, 0x6a, 0xbc, 0x36, 0xc4, 0xa1, 0xbd, 0xea, 0x5a, 0x15, 0xbe, 0xc2, 0xea, 0x6b, 0x3e, 0xd1, 0x45, 0xda, 0xbd, 0xf7, 0xd1, 0xb5, 0xbd, 0xa3, 0x18, 0x9a, 0xbe, 0x38, 0xdf, 0xa8, 0x3e, 0xd4, 0x11, 0xa8, 0x3e, 0x31, 0xb6, 0x8c, 0xbe, 0x4e, 0x7a, 0x79, 0x3d, 0x40, 0x28, 0x75, 0x3e, 0x0f, 0x3c, 0xec, 0x3e, 0x7e, 0xc5, 0x9c, 0xbc, 0x8f, 0x47, 0xd3, 0xbe, 0xde, 0xd6, 0x62, 0x3d, 0xcd, 0x1f, 0x06, 0x3f, 0xb7, 0x50, 0xd8, 0x3d, 0x17, 0x5f, 0x93, 0xbd, 0x34, 0xc2, 0xa3, 0xbd, 0x63, 0x09, 0x8a, 0x3e, 0x86, 0x48, 0x1a, 0x3f, 0x3e, 0xb0, 0x08, 0x3d, 0x8a, 0x14, 0x8d, 0x3e, 0xda, 0x12, 0xab, 0x3c, 0xe6, 0x64, 0x04, 0x3f, 0x20, 0xa1, 0xe3, 0x3c, 0x86, 0x3c, 0x8e, 0x3c, 0x63, 0xb9, 0xe8, 0x3d, 0xf0, 0x99, 0x23, 0x3d, 0xd9, 0x1f, 0xa5, 0x3c, 0x8a, 0xd1, 0x2a, 0x3f, 0xe9, 0x27, 0x5c, 0xbd, 0x82, 0xaf, 0x56, 0x3e, 0xe9, 0x25, 0xd4, 0x3d, 0xab, 0xf3, 0x98, 0x3d, 0xe3, 0x93, 0x84, 0x3f, 0xa6, 0x7e, 0xd7, 0x3b, 0xd1, 0xaa, 0x5a, 0xbf, 0x17, 0x81, 0xc7, 0xbe, 0xec, 0x54, 0xc7, 0x3e, 0x62, 0xb4, 0xff, 0xbd, 0x8a, 0x88, 0x9c, 0xbe, 0x21, 0xb0, 0x8f, 0x3c, 0x26, 0x1b, 0x06, 0x3f, 0x97, 0x85, 0x6b, 0x3e, 0xc3, 0x09, 0x50, 0x3b, 0x27, 0x9f, 0x6a, 0xbd, 0x0f, 0xc5, 0x16, 0x3e, 0x89, 0x97, 0xcc, 0xbe, 0x92, 0x6c, 0x7d, 0xbc, 0xbf, 0x02, 0xd7, 0xbe, 0x29, 0x6f, 0x1e, 0xbf, 0x61, 0x4b, 0x57, 0xbf, 0x6f, 0xcd, 0x83, 0x3c, 0xda, 0x21, 0xa7, 0x3d, 0xb6, 0x9d, 0x31, 0xbe, 0x8c, 0x52, 0x38, 0x3f, 0x1f, 0x50, 0x0c, 0x3e, 0xad, 0x72, 0x0e, 0x3d, 0x3a, 0x9b, 0x3b, 0x3e, 0x12, 0xb4, 0x6d, 0x3e, 0x0e, 0xbc, 0xb9, 0x3e, 0xe5, 0x32, 0xa2, 0x3c, 0xb8, 0xbc, 0x1e, 0xbe, 0x0c, 0xa3, 0x8a, 0x3f, 0xba, 0xcc, 0x93, 0xbe, 0xff, 0xb7, 0xa2, 0x3f, 0xb2, 0x6e, 0x05, 0x3e, 0x28, 0x18, 0x2a, 0xbe, 0xde, 0xbc, 0x2a, 0x3f, 0x4d, 0xfa, 0xf3, 0xbe, 0x3a, 0x16, 0x54, 0xbf, 0x38, 0xa0, 0xa8, 0x3d, 0x14, 0x67, 0x15, 0x3e, 0xe0, 0x69, 0x0c, 0xbf, 0xbd, 0x99, 0xad, 0xbe, 0xed, 0x3b, 0x5e, 0xbc, 0x98, 0xe1, 0xd6, 0x3e, 0xa2, 0x3a, 0x80, 0xbe, 0x09, 0x55, 0xe5, 0xbe, 0x7c, 0x3c, 0xb0, 0x3d, 0x5f, 0x92, 0x95, 0xbe, 0x6c, 0xa8, 0x0c, 0xbf, 0x94, 0x5a, 0x33, 0xbc, 0xcb, 0x62, 0xcc, 0xbe, 0x5c, 0x9c, 0x0b, 0xbe, 0x27, 0xc2, 0x09, 0xbf, 0x65, 0x7f, 0xfa, 0x3d, 0x46, 0x04, 0x1d, 0xbe, 0x05, 0xbe, 0x0c, 0x3e, 0xe1, 0xf9, 0x12, 0x3e, 0x24, 0xfe, 0xb4, 0xbe, 0x77, 0x5a, 0x8d, 0xbd, 0x3f, 0x66, 0x8b, 0xbf, 0x59, 0xdd, 0x9e, 0xbe, 0x82, 0x78, 0x21, 0x3e, 0x67, 0xe2, 0xa3, 0xbe, 0x3c, 0x3c, 0x29, 0x3e, 0x7f, 0xec, 0x83, 0x3d, 0x20, 0x2d, 0x7d, 0xbe, 0x52, 0xb7, 0xa9, 0x3c, 0x9b, 0x41, 0xcc, 0x3e, 0xff, 0xe5, 0xa0, 0x3d, 0x9f, 0x77, 0xa5, 0xbe, 0xd7, 0x1b, 0xa0, 0x3e, 0x27, 0x98, 0x1e, 0x3f, 0xe6, 0x27, 0x53, 0x3c, 0x15, 0x3e, 0xc8, 0x3d, 0x79, 0x79, 0xd3, 0xbe, 0xa7, 0x75, 0xc5, 0xbe, 0x0b, 0xee, 0xeb, 0xbe, 0x98, 0x6f, 0x78, 0xbe, 0x03, 0x88, 0x20, 0x3f, 0x4c, 0x79, 0xce, 0xbb, 0xef, 0x62, 0xcf, 0xbd, 0xe3, 0xf2, 0xcb, 0x3e, 0xe7, 0x22, 0x6c, 0x3f, 0xa3, 0x60, 0x7c, 0x3c, 0x0f, 0xf3, 0x0f, 0xbd, 0x2d, 0x0d, 0x9b, 0x3d, 0x33, 0x66, 0xb3, 0xbe, 0xbd, 0x3b, 0x7c, 0x3d, 0x9e, 0xc3, 0x73, 0x3d, 0x0d, 0x4f, 0xcb, 0x3d, 0x16, 0xc2, 0xea, 0xbe, 0x6c, 0x6c, 0x7a, 0xbe, 0x0e, 0xf9, 0x97, 0x3d, 0xb4, 0x6d, 0x29, 0xbe, 0x55, 0x6a, 0x26, 0xbe, 0x0e, 0x8f, 0xbb, 0x3d, 0x15, 0xa1, 0x94, 0xbe, 0x83, 0xc8, 0x08, 0xbf, 0xe0, 0x10, 0x3e, 0xbe, 0x80, 0xe0, 0x63, 0xbe, 0xb8, 0x70, 0xba, 0x3e, 0x25, 0x17, 0x37, 0x3f, 0x9a, 0x4b, 0xa1, 0xbe, 0x61, 0x4b, 0x77, 0x3d, 0x08, 0xef, 0x25, 0x3f, 0x74, 0x4f, 0x05, 0x3e, 0xf2, 0x97, 0xc5, 0x3e, 0x8f, 0x6a, 0x07, 0x3f, 0x1e, 0xda, 0x68, 0xbe, 0xf5, 0xb0, 0xf1, 0xbe, 0x5f, 0x0e, 0x69, 0xbd, 0xc5, 0x38, 0x78, 0x3d, 0xa2, 0xde, 0x6f, 0x3c, 0x71, 0xb1, 0x38, 0x3e, 0xb2, 0xfa, 0x57, 0xbd, 0x07, 0xae, 0x1a, 0xbf, 0x5e, 0xc0, 0x69, 0x3e, 0x71, 0x64, 0x23, 0x3e, 0x9d, 0x4d, 0x56, 0xbd, 0x9b, 0xc5, 0x7b, 0xbb, 0xa2, 0xf3, 0x8e, 0xbd, 0x75, 0x04, 0x67, 0x3c, 0x57, 0x08, 0x36, 0x3f, 0x3a, 0xfc, 0x30, 0x3e, 0xb0, 0xa6, 0xa9, 0xbc, 0x05, 0x43, 0xd0, 0xbb, 0x3d, 0xf8, 0xff, 0xbd, 0xf3, 0xde, 0xba, 0x3d, 0x11, 0x60, 0x30, 0xbd, 0xad, 0x11, 0xe5, 0xbc, 0x68, 0xd9, 0x24, 0xbf, 0x2d, 0x6d, 0xcf, 0x3e, 0x13, 0x04, 0x3f, 0x3e, 0xc8, 0x41, 0xc6, 0xbe, 0x19, 0x61, 0x12, 0x3d, 0x48, 0xd6, 0xc5, 0x3e, 0xac, 0xfa, 0x05, 0x3f, 0x0e, 0xc0, 0xc1, 0xbe, 0xcd, 0xf1, 0x90, 0x3e, 0xef, 0x44, 0xbb, 0xbe, 0x82, 0xbc, 0xd6, 0xbe, 0xd4, 0xf2, 0x43, 0xbe, 0x02, 0x5e, 0x0e, 0x3f, 0x7a, 0x38, 0x03, 0xbe, 0x6c, 0xd6, 0xdc, 0xbe, 0x78, 0x61, 0xab, 0x3e, 0xbc, 0x56, 0x11, 0x3f, 0x67, 0x92, 0xf6, 0x3e, 0x8e, 0x08, 0x3b, 0xbe, 0xfd, 0xd6, 0xee, 0xbc, 0x8b, 0xff, 0xa6, 0xbd, 0x1b, 0x22, 0xdb, 0xbe, 0x78, 0xb8, 0x28, 0x3e, 0x7f, 0xc4, 0x2c, 0xbd, 0xc2, 0x2c, 0x4e, 0x3e, 0x69, 0x69, 0x38, 0xbe, 0x4f, 0x51, 0x51, 0x3d, 0x94, 0x86, 0x9e, 0xbd, 0x10, 0x86, 0xde, 0x3b, 0x00, 0x0f, 0x0d, 0xbe, 0xd7, 0x55, 0xf3, 0xbe, 0x70, 0xb5, 0xa4, 0xbe, 0xdc, 0x4d, 0x96, 0xbe, 0x3f, 0x65, 0x7b, 0xbe, 0xd8, 0x40, 0x61, 0x3f, 0xaa, 0x4e, 0x11, 0x3f, 0x30, 0xb3, 0x35, 0xbe, 0xd1, 0xbf, 0x97, 0xbe, 0x33, 0x7e, 0x2a, 0x3f, 0x0a, 0xe3, 0x8f, 0xbe, 0xb0, 0x2e, 0x3c, 0x3d, 0x34, 0xff, 0xb4, 0x3d, 0x38, 0xcc, 0x2b, 0xbe, 0x30, 0xd4, 0x7d, 0xbd, 0x5e, 0x4e, 0x6f, 0xbe, 0xc0, 0xc6, 0x98, 0x3c, 0xc0, 0x60, 0x80, 0x3c, 0x13, 0x71, 0x80, 0xbd, 0x55, 0x2d, 0x3b, 0xbe, 0xc6, 0x5d, 0x9b, 0x3d, 0xd8, 0xd2, 0x41, 0xbd, 0x50, 0xa8, 0x82, 0xbe, 0xa3, 0x07, 0x66, 0xbe, 0x0f, 0x41, 0xd5, 0x3d, 0xce, 0xdc, 0x36, 0xbe, 0xf7, 0xf7, 0x7d, 0xbe, 0x87, 0x96, 0xa0, 0xbd, 0x4c, 0xa5, 0x62, 0x3e, 0x52, 0xdf, 0x80, 0xbe, 0x48, 0x33, 0xd1, 0x3d, 0x23, 0x2c, 0x2c, 0xbe, 0x23, 0xd6, 0x30, 0xbe, 0x83, 0x11, 0x27, 0xbe, 0x9e, 0x95, 0x10, 0xbe, 0x54, 0xcf, 0x72, 0x3d, 0x37, 0xc8, 0x0b, 0x3f, 0x4f, 0x7d, 0x39, 0x3d, 0x00, 0x11, 0x2d, 0x3e, 0xe0, 0x04, 0x87, 0x3e, 0x16, 0x27, 0xba, 0x3e, 0x2c, 0xdf, 0x34, 0x3d, 0x20, 0x83, 0x90, 0x3d, 0x98, 0x86, 0x81, 0xbe, 0x68, 0x6d, 0x2d, 0x3e, 0x5e, 0xa0, 0xdc, 0x3e, 0xb7, 0xc0, 0x8a, 0xbd, 0x7e, 0x11, 0x91, 0xbd, 0xe7, 0xdc, 0xf0, 0x3a, 0x43, 0x78, 0xc0, 0x3e, 0xa7, 0xa2, 0x0b, 0x3f, 0xda, 0xf9, 0xe4, 0x3e, 0x27, 0x0b, 0x54, 0x3d, 0x6c, 0x92, 0x43, 0x3e, 0xd2, 0x0a, 0x86, 0xbc, 0x7a, 0xe3, 0xd3, 0xbd, 0xab, 0xcb, 0x5c, 0xbe, 0x5c, 0xfd, 0x32, 0xbe, 0x9d, 0xb2, 0x21, 0xbe, 0xac, 0x14, 0xfd, 0xbe, 0xbd, 0x09, 0x7e, 0xbe, 0x0a, 0x32, 0xf0, 0xbd, 0x01, 0x8d, 0x00, 0x3d, 0xf4, 0xc5, 0x81, 0xbe, 0x67, 0xb8, 0x97, 0x3c, 0xc1, 0xb2, 0x8a, 0xbd, 0x43, 0x20, 0xf5, 0xbc, 0x5f, 0xb2, 0x4e, 0xbe, 0xc0, 0xb1, 0x8b, 0xbe, 0x2d, 0xda, 0x46, 0x3f, 0xba, 0x30, 0x7e, 0x3f, 0x43, 0x34, 0x7e, 0x3e, 0x1b, 0xa2, 0x6f, 0xbd, 0xc2, 0xef, 0x43, 0x3f, 0xe5, 0xa6, 0x7c, 0x3d, 0x47, 0x76, 0x9e, 0x3d, 0xa7, 0x4c, 0x2d, 0xbd, 0xc1, 0x50, 0x86, 0x3e, 0xa2, 0x71, 0xcc, 0x3e, 0x12, 0xb8, 0xad, 0xbe, 0xe5, 0xc1, 0x87, 0x3d, 0xb5, 0x21, 0x71, 0x3e, 0x1e, 0x91, 0x65, 0x3e, 0x62, 0xaf, 0x2e, 0xbd, 0x28, 0xbc, 0x93, 0xbe, 0x0c, 0xcc, 0x18, 0xbd, 0xd8, 0x02, 0x99, 0xbe, 0x48, 0x0b, 0x5c, 0x3e, 0xca, 0x3f, 0x15, 0xbe, 0x2e, 0xde, 0x0f, 0xbf, 0xa7, 0x19, 0x73, 0xbe, 0x92, 0x14, 0x81, 0x3d, 0x17, 0xaa, 0x23, 0xbe, 0xa2, 0xa7, 0x3b, 0xbb, 0xce, 0xbf, 0x8e, 0x3d, 0x72, 0xa0, 0xe6, 0xbd, 0xf5, 0x47, 0x9e, 0xbd, 0xef, 0x12, 0x84, 0xbe, 0xd2, 0xf9, 0x4b, 0xbd, 0xd3, 0xbf, 0xd4, 0x3b, 0xc5, 0xff, 0x96, 0x3e, 0x0a, 0xfa, 0x4c, 0x3d, 0x62, 0x4c, 0x2c, 0x3e, 0xb6, 0x43, 0x0a, 0x3f, 0xe6, 0xd1, 0xcd, 0xbd, 0x9f, 0x18, 0x40, 0xbd, 0x20, 0xb1, 0x2f, 0xbe, 0x15, 0x4e, 0x7c, 0x3d, 0x09, 0x4d, 0xe1, 0x3e, 0xe1, 0x4b, 0xac, 0x3e, 0xca, 0xdf, 0xa6, 0x3e, 0x22, 0x02, 0xeb, 0x3e, 0xc0, 0x70, 0x2d, 0x3e, 0x26, 0xa2, 0xab, 0xbd, 0x41, 0x49, 0x80, 0x3e, 0xfd, 0x62, 0xee, 0xbc, 0xfb, 0xc1, 0x94, 0xbd, 0x69, 0x58, 0xe6, 0xbe, 0xbb, 0x65, 0x69, 0xbe, 0xc6, 0x27, 0x2a, 0x3d, 0x58, 0xd3, 0x0a, 0x3e, 0x5e, 0xef, 0xd0, 0xbe, 0x87, 0xe8, 0x0d, 0xbe, 0x9a, 0x03, 0xd2, 0xbd, 0xe4, 0xf7, 0xb4, 0x3e, 0x8e, 0x9e, 0x1f, 0x3e, 0xad, 0x01, 0xfc, 0x3e, 0x6f, 0x2f, 0x8f, 0xbe, 0xef, 0xcc, 0xf5, 0xbd, 0xbe, 0x69, 0xd8, 0x3c, 0x32, 0x6a, 0x21, 0xbd, 0xe3, 0xe2, 0xdf, 0x3e, 0x92, 0xd4, 0x27, 0xbd, 0xd9, 0xd4, 0xdd, 0x3d, 0x90, 0xd0, 0x81, 0xbd, 0x52, 0x60, 0xbf, 0x3e, 0xa9, 0x61, 0x3b, 0x3e, 0x51, 0x22, 0x58, 0x3e, 0x47, 0x30, 0xbb, 0xbd, 0xd1, 0x5a, 0xbe, 0xbd, 0x53, 0x95, 0xae, 0xbe, 0x8f, 0x67, 0xa7, 0x3d, 0x32, 0xde, 0x00, 0xbf, 0x1b, 0xaa, 0x27, 0xbf, 0xc0, 0xd9, 0xc7, 0xbd, 0x0f, 0xa4, 0xee, 0x3d, 0xba, 0xf9, 0xf1, 0x3d, 0x17, 0x16, 0xc8, 0x3d, 0xe2, 0xd8, 0x90, 0x3c, 0x0b, 0x6c, 0x75, 0xbe, 0x08, 0xe2, 0x82, 0xbe, 0x67, 0x92, 0x57, 0x3e, 0xca, 0xe2, 0x2b, 0x3e, 0x43, 0x03, 0x15, 0xbd, 0x2a, 0x7f, 0x9c, 0x3c, 0x8a, 0x9c, 0x34, 0xbf, 0x47, 0x4b, 0xd3, 0xbe, 0x2a, 0xe6, 0x3b, 0x3e, 0x8c, 0xab, 0x2a, 0x3d, 0xe3, 0x6e, 0x77, 0x3e, 0x32, 0xfe, 0xf1, 0xbe, 0x99, 0xea, 0xdc, 0xbd, 0x3d, 0xec, 0x4d, 0xbd, 0x78, 0x54, 0xe7, 0x3e, 0x9e, 0x33, 0x26, 0xbe, 0x4c, 0xa9, 0x8e, 0xbc, 0x3f, 0x20, 0xc3, 0x3e, 0xf0, 0x0b, 0x8f, 0x3e, 0xf6, 0x5e, 0xae, 0xbe, 0x0c, 0x21, 0x3a, 0xbf, 0x99, 0x52, 0xf3, 0x3e, 0x99, 0x0e, 0xab, 0xbe, 0x84, 0xd1, 0xa9, 0x3d, 0x72, 0xd1, 0xb0, 0x3e, 0x89, 0x72, 0xaf, 0x3e, 0x04, 0xed, 0x13, 0xbe, 0x8a, 0x5c, 0xa5, 0xbd, 0xf9, 0xb4, 0x2d, 0x3e, 0x6f, 0x38, 0x18, 0xbe, 0x97, 0xcc, 0x2a, 0xbe, 0xfe, 0xd3, 0x33, 0xbf, 0xa1, 0x38, 0xa5, 0x3e, 0xc5, 0xc4, 0x97, 0xbe, 0xb3, 0x8c, 0x82, 0x3c, 0x3f, 0x40, 0xb6, 0x3e, 0x55, 0xba, 0x3a, 0xbe, 0xda, 0xf5, 0xab, 0x3d, 0x63, 0x7f, 0xac, 0xbe, 0x81, 0xa6, 0x00, 0xbe, 0x92, 0xe0, 0x94, 0xbe, 0xf9, 0xa0, 0x49, 0x3e, 0x71, 0xc5, 0xbb, 0x3d, 0x40, 0xc6, 0xd6, 0x3d, 0xc6, 0x09, 0x97, 0x3e, 0x21, 0x39, 0xd0, 0xbe, 0xf1, 0x01, 0x62, 0x3e, 0x6d, 0xcb, 0x49, 0x3e, 0xf3, 0xa8, 0x78, 0xbe, 0x63, 0x49, 0xc0, 0xbc, 0x52, 0xba, 0xf9, 0xbc, 0x7d, 0xcb, 0x22, 0x3e, 0x65, 0x1d, 0xce, 0xbe, 0xfa, 0x84, 0x7e, 0xbc, 0x16, 0xb7, 0x83, 0x3e, 0xcf, 0x56, 0x04, 0xbd, 0x3f, 0xdc, 0x19, 0xbe, 0xd7, 0xd8, 0x3b, 0xbe, 0xf3, 0x1c, 0x0b, 0x3f, 0x10, 0x7b, 0x54, 0x3d, 0x6e, 0x87, 0x6b, 0xbd, 0xf1, 0xc0, 0x6a, 0xbe, 0x00, 0x20, 0x4b, 0xbd, 0x56, 0x44, 0x91, 0xbe, 0x37, 0xed, 0x19, 0x3e, 0x02, 0x82, 0x9a, 0x3e, 0xc7, 0x31, 0x00, 0x3d, 0x13, 0xc0, 0x1f, 0xbd, 0xa8, 0x88, 0x33, 0x3f, 0x4f, 0x4c, 0xad, 0xbc, 0xaa, 0x63, 0xcc, 0x3e, 0xa5, 0x60, 0x97, 0x3d, 0x1e, 0xe6, 0xa4, 0xbc, 0x71, 0xe1, 0xa2, 0x3c, 0x5e, 0x25, 0xb3, 0x3d, 0x04, 0xc5, 0xd8, 0x3e, 0x0c, 0xa2, 0xfe, 0x3e, 0x77, 0x53, 0xca, 0x3c, 0xf2, 0x83, 0x17, 0xbf, 0x03, 0x24, 0xe5, 0xbd, 0x72, 0x67, 0x88, 0xbe, 0x7a, 0xe9, 0xdb, 0xbe, 0x31, 0x26, 0x51, 0xbe, 0xcf, 0x51, 0x2a, 0x3e, 0x82, 0xaf, 0xd3, 0x3e, 0xb0, 0xf1, 0x94, 0xbe, 0xf5, 0x24, 0xca, 0xbd, 0xa6, 0x84, 0x53, 0xbe, 0xc1, 0xc4, 0xae, 0xbe, 0x69, 0x78, 0xe6, 0xbe, 0xd4, 0x0b, 0x50, 0xbe, 0x3d, 0xd5, 0xe0, 0x3d, 0x0e, 0x4a, 0x11, 0xbf, 0x60, 0xef, 0x56, 0xbe, 0x2a, 0x58, 0x0c, 0x3e, 0x0b, 0x43, 0x0b, 0x3f, 0xcc, 0x9e, 0x3a, 0xbe, 0xf3, 0x14, 0x57, 0x3e, 0x5a, 0xf5, 0x1a, 0x3e, 0x06, 0x46, 0x17, 0xbe, 0xea, 0xe3, 0x49, 0x3f, 0xf6, 0xed, 0x84, 0x3d, 0x38, 0x29, 0x1c, 0xbd, 0xfa, 0x6b, 0xb0, 0xbd, 0xc6, 0xa4, 0xd5, 0xbd, 0x3d, 0x33, 0x6c, 0xbe, 0x8b, 0xe5, 0x89, 0x3c, 0x11, 0xd5, 0xa3, 0x3c, 0xa1, 0x16, 0x00, 0xbf, 0x37, 0xa8, 0x30, 0xbe, 0xe4, 0xbd, 0x82, 0xbe, 0x55, 0x94, 0xae, 0xbd, 0xf1, 0xbe, 0x92, 0x3e, 0x44, 0x8d, 0x89, 0xbd, 0xe0, 0xa6, 0x9e, 0xbe, 0x7c, 0x88, 0xdc, 0xbe, 0x06, 0xad, 0x13, 0xbe, 0x32, 0x3e, 0xb6, 0xbd, 0xa3, 0xb5, 0x3a, 0xbd, 0xdd, 0x6e, 0x46, 0xbd, 0xcf, 0x64, 0xff, 0x3d, 0x71, 0xb5, 0xd2, 0xbe, 0x4c, 0x20, 0x75, 0xbc, 0x05, 0x19, 0x12, 0x3e, 0xb8, 0x61, 0xdd, 0xba, 0x06, 0x66, 0xa8, 0xbd, 0x57, 0xb6, 0x97, 0x3e, 0xc6, 0xce, 0xe1, 0x3d, 0x52, 0x91, 0x2e, 0xbd, 0xc4, 0x25, 0x27, 0x3e, 0x53, 0x02, 0x0a, 0x3d, 0x1c, 0x86, 0x20, 0x3f, 0x75, 0xe2, 0xbb, 0xbe, 0xc0, 0xbf, 0x9c, 0x3e, 0xd0, 0xf1, 0x89, 0xbd, 0x07, 0x51, 0x1e, 0x3e, 0xd6, 0x6b, 0x89, 0xbd, 0xf5, 0x01, 0x5a, 0x3e, 0x58, 0x6f, 0x95, 0x3e, 0xb9, 0x56, 0x09, 0xbf, 0x7f, 0x15, 0x73, 0x3b, 0xa3, 0xa0, 0xdb, 0x3e, 0x45, 0xef, 0xf6, 0x3e, 0x14, 0x5c, 0xf7, 0xbd, 0x56, 0x9a, 0xce, 0xbe, 0x8d, 0x63, 0x85, 0x3e, 0x43, 0x77, 0x79, 0xbe, 0x42, 0x9f, 0xc7, 0xbe, 0x06, 0x25, 0x86, 0xbe, 0xff, 0xc9, 0x14, 0x3f, 0xc7, 0xb8, 0xda, 0xbd, 0xc9, 0x21, 0xc3, 0x3c, 0x45, 0x4b, 0x91, 0x3d, 0xa5, 0x9e, 0xc3, 0x3d, 0x39, 0xfd, 0x28, 0xbe, 0x36, 0xa7, 0xc1, 0x3e, 0x88, 0x61, 0x22, 0x3e, 0x35, 0xc4, 0x12, 0xbc, 0x63, 0x55, 0xce, 0xbe, 0x0e, 0x31, 0x3c, 0xbe, 0x18, 0x9c, 0x40, 0x3e, 0xd0, 0x64, 0x7b, 0x3c, 0xa1, 0x21, 0x07, 0x3f, 0x2d, 0x16, 0x6e, 0x3e, 0xfa, 0xfb, 0x7a, 0xbe, 0x2d, 0x78, 0x10, 0x3d, 0xc9, 0x7e, 0xb0, 0x3d, 0xba, 0x7c, 0xca, 0xbd, 0x09, 0x00, 0xf5, 0xbd, 0x7b, 0x60, 0x9c, 0xbe, 0x43, 0x67, 0x37, 0x3f, 0xe5, 0x2c, 0xf6, 0x3d, 0x30, 0x17, 0x75, 0x3f, 0x6a, 0x0e, 0x2f, 0x3b, 0xc8, 0x60, 0xc2, 0x3d, 0xce, 0x6a, 0x1f, 0x3e, 0x81, 0x24, 0x92, 0xbe, 0x76, 0xb2, 0xbd, 0xbe, 0x0d, 0xd1, 0xee, 0x3c, 0x95, 0xc2, 0x99, 0x3e, 0x8e, 0xc5, 0x6a, 0x3d, 0x49, 0x0d, 0x42, 0xbd, 0x0b, 0x9e, 0x87, 0xbd, 0x7a, 0xaa, 0x3a, 0xbf, 0xb6, 0x4b, 0x29, 0x3d, 0x52, 0xd7, 0x86, 0x3e, 0x74, 0xd2, 0xb9, 0xbb, 0x64, 0x3d, 0x60, 0xbd, 0x4e, 0xb2, 0x4c, 0x3d, 0x97, 0xc1, 0x03, 0xbe, 0x2c, 0xb5, 0xd4, 0xbc, 0x9a, 0x6e, 0x64, 0x3e, 0xd0, 0x35, 0x86, 0xbd, 0xf4, 0x2f, 0x08, 0x3d, 0x65, 0xb2, 0x37, 0x3e, 0x5a, 0x41, 0xa5, 0x3e, 0x2c, 0xcf, 0x20, 0x3e, 0x55, 0xd9, 0x87, 0x3e, 0x34, 0xae, 0xe5, 0x3d, 0x8a, 0x15, 0xd6, 0x3d, 0x76, 0xbe, 0x8c, 0x3d, 0x8f, 0xe1, 0xe8, 0x3c, 0xff, 0xd7, 0x5b, 0x3e, 0x25, 0xf2, 0x92, 0xbd, 0x8d, 0xf8, 0x35, 0xbc, 0x2c, 0xdf, 0x36, 0x3e, 0xa5, 0x14, 0x42, 0x3f, 0xef, 0x8e, 0x3c, 0xbf, 0xe8, 0xd4, 0xc8, 0xbe, 0xa4, 0x54, 0x30, 0x3f, 0x8b, 0x4d, 0x56, 0xbc, 0x66, 0x32, 0x39, 0xbf, 0x3e, 0x5c, 0x75, 0x3d, 0xb2, 0x69, 0x3a, 0x3f, 0x91, 0x6f, 0x39, 0xbe, 0xc3, 0x17, 0xd3, 0xbc, 0x27, 0x89, 0x8e, 0x3e, 0x0f, 0x88, 0x40, 0x3e, 0x9c, 0x07, 0xa9, 0xbe, 0x3c, 0x5a, 0x65, 0x3d, 0xd8, 0xeb, 0x8a, 0x3d, 0x98, 0xe7, 0x04, 0xbf, 0xbe, 0xe2, 0x8f, 0xbe, 0x08, 0xc9, 0x9f, 0x3d, 0xd1, 0xdd, 0x65, 0x3e, 0xec, 0x25, 0xbb, 0x3e, 0x54, 0x83, 0xbd, 0xbc, 0x38, 0x45, 0x9e, 0x3e, 0x6c, 0x9e, 0xd6, 0x3d, 0x5e, 0xc6, 0xc4, 0x3d, 0xd0, 0x54, 0x9a, 0xbd, 0x9d, 0xd3, 0x55, 0xbe, 0x31, 0x59, 0x88, 0xbd, 0x4d, 0xc0, 0x55, 0xbd, 0x15, 0xbb, 0xd9, 0x3e, 0x54, 0xea, 0x2b, 0xbd, 0x26, 0x40, 0x24, 0x3f, 0xe0, 0x72, 0xdf, 0x3e, 0xf5, 0xae, 0x40, 0x3b, 0xe4, 0x7e, 0x90, 0x3c, 0x90, 0x22, 0x1c, 0xbf, 0x3e, 0x50, 0x34, 0xbf, 0xcc, 0xcb, 0x1f, 0x3e, 0xa3, 0x8c, 0x88, 0x3d, 0xc5, 0xcb, 0xf2, 0xbe, 0x1d, 0xdc, 0x55, 0xbe, 0x36, 0x70, 0x05, 0xbd, 0x70, 0x3a, 0x4b, 0xbf, 0x41, 0xbf, 0xd7, 0x3d, 0x15, 0xba, 0x08, 0xbe, 0xe1, 0x07, 0xac, 0x3d, 0x46, 0xa6, 0x0f, 0xbd, 0x20, 0xe2, 0x4b, 0x3d, 0x6f, 0x79, 0x4a, 0xbe, 0xbc, 0x6b, 0x34, 0x3e, 0xdb, 0xce, 0xc9, 0x3d, 0xbc, 0x45, 0x09, 0x3d, 0x6f, 0xcb, 0x86, 0x3d, 0x48, 0x9c, 0xb6, 0x3d, 0x60, 0xe9, 0x05, 0x3e, 0xaa, 0x42, 0xef, 0x3d, 0x65, 0x75, 0x91, 0x3e, 0xfd, 0x7b, 0xec, 0x3c, 0x22, 0x78, 0x2b, 0x3d, 0x87, 0x85, 0x2d, 0x3e, 0xd2, 0x74, 0x1c, 0xbe, 0x13, 0xce, 0xfd, 0x3d, 0x92, 0xef, 0xbe, 0xbd, 0x38, 0x9d, 0x4a, 0x3b, 0xcf, 0x2a, 0xda, 0x3d, 0x46, 0x08, 0x21, 0x3f, 0x1c, 0x08, 0x8f, 0xbf, 0x07, 0xdd, 0x0c, 0xbf, 0x7c, 0x49, 0xdd, 0x3e, 0x39, 0xb2, 0x0e, 0xbf, 0x37, 0x01, 0x3e, 0xbf, 0xdc, 0xc2, 0x7b, 0xbc, 0x01, 0xfd, 0x43, 0x3f, 0x03, 0x5b, 0x85, 0xbe, 0xb4, 0xa5, 0x0d, 0x3e, 0x30, 0x5f, 0x87, 0x3e, 0xaf, 0x3b, 0x86, 0xbc, 0x76, 0xb6, 0xf9, 0xbe, 0xbc, 0x7d, 0xe1, 0x3e, 0x83, 0x65, 0xc2, 0xba, 0x14, 0xaa, 0xeb, 0xbe, 0xff, 0x3c, 0x7c, 0xbf, 0x31, 0xf7, 0x97, 0xbc, 0x9a, 0xa0, 0x41, 0x3e, 0xd5, 0x87, 0x7d, 0x3e, 0x62, 0x44, 0xac, 0x3d, 0x29, 0xd0, 0x8f, 0x3e, 0x74, 0x7f, 0x2d, 0x3e, 0xa9, 0x0c, 0xd4, 0x3d, 0x7e, 0x72, 0x52, 0x3e, 0x66, 0xb5, 0x8f, 0xbe, 0x29, 0xff, 0x4c, 0xbd, 0x9b, 0x44, 0xe0, 0xbc, 0x6c, 0xcf, 0x01, 0x3f, 0x06, 0xa5, 0x96, 0x3c, 0x80, 0xdd, 0x71, 0x3f, 0xc3, 0xae, 0x8a, 0x3e, 0xd1, 0x51, 0x0c, 0xbe, 0x9f, 0x84, 0x8c, 0x3e, 0xb5, 0x4a, 0x4b, 0xbf, 0x57, 0x16, 0x40, 0xbf, 0x99, 0xee, 0x4c, 0xbd, 0xd8, 0x34, 0x5c, 0x3e, 0x41, 0x9a, 0x47, 0xbf, 0x92, 0xbc, 0x61, 0x3e, 0x40, 0xf4, 0x86, 0x3c, 0xee, 0xe3, 0xdc, 0xbe, 0x32, 0x32, 0x28, 0x3d, 0xe1, 0x9c, 0x5b, 0x3e, 0x63, 0xce, 0x2f, 0x3d, 0x11, 0xf4, 0xb9, 0xbc, 0xe1, 0x11, 0x01, 0x3e, 0xf3, 0x39, 0x08, 0x3d, 0xc1, 0xc6, 0x18, 0x3e, 0x22, 0x80, 0xe7, 0xbd, 0x71, 0xc7, 0x29, 0x3e, 0x70, 0x12, 0xda, 0x3d, 0x28, 0xde, 0xd2, 0x3d, 0xd5, 0x28, 0xf0, 0x3c, 0x3b, 0xa9, 0x76, 0x3d, 0x2b, 0x42, 0x3c, 0x3d, 0xd8, 0x93, 0xad, 0x3d, 0x11, 0x4f, 0x9c, 0xbd, 0x96, 0x5b, 0xb0, 0x3e, 0x59, 0x7d, 0x9b, 0xbd, 0xc8, 0xb8, 0x57, 0x3e, 0x21, 0xde, 0xf2, 0x3c, 0x39, 0x4c, 0xb6, 0x3d, 0x50, 0x75, 0x69, 0x3e, 0x7b, 0xb8, 0x13, 0xbf, 0x49, 0xa1, 0x75, 0xbf, 0x88, 0x11, 0x26, 0xbe, 0x76, 0xf4, 0x87, 0xbe, 0x5a, 0x5b, 0xd0, 0xbe, 0xf5, 0x2d, 0xdf, 0xbd, 0x9c, 0xdb, 0x1d, 0xbd, 0xf0, 0x48, 0xb9, 0xbe, 0x68, 0x3d, 0xf4, 0x3d, 0x6c, 0x13, 0xfb, 0xbe, 0x34, 0xb5, 0xba, 0xbe, 0x60, 0x04, 0x9f, 0xbe, 0x08, 0xfd, 0x5e, 0xbf, 0x86, 0x1e, 0x2d, 0xbd, 0x5b, 0x8d, 0x0e, 0xbf, 0x05, 0x7f, 0x59, 0xbf, 0xd6, 0x12, 0x3f, 0xbf, 0x83, 0x40, 0xa8, 0x3c, 0xc8, 0x82, 0xd2, 0xbd, 0x46, 0xc7, 0x89, 0xbc, 0xe3, 0x3d, 0xf9, 0x3d, 0xe6, 0x1b, 0x06, 0x3e, 0xbe, 0xfd, 0xa7, 0x3c, 0x6e, 0x41, 0x57, 0x3e, 0xb2, 0xe9, 0x9e, 0x3e, 0x29, 0x30, 0xcf, 0x3e, 0x6f, 0x27, 0x11, 0x3e, 0xd4, 0xc3, 0x37, 0xbf, 0x8e, 0xc7, 0x14, 0x3e, 0x07, 0xe2, 0x1d, 0xbe, 0x24, 0xa5, 0xc1, 0xbe, 0xb7, 0x2c, 0x04, 0x3e, 0x76, 0x20, 0x85, 0xbe, 0x9e, 0x44, 0x75, 0x3e, 0x21, 0x05, 0xb1, 0xbe, 0x6b, 0xca, 0x4d, 0xbf, 0x86, 0x2e, 0xd9, 0xbe, 0x1a, 0x7a, 0xa8, 0xbe, 0xfa, 0x6d, 0x01, 0xbf, 0xe6, 0x59, 0xd9, 0x3d, 0x41, 0x26, 0x47, 0x3e, 0x9f, 0x05, 0x3d, 0x3e, 0x7c, 0x65, 0x7e, 0x3e, 0x8e, 0x00, 0xc1, 0x3e, 0x12, 0x73, 0x93, 0xbe, 0x14, 0xc9, 0x61, 0x3e, 0xad, 0x82, 0x04, 0x3e, 0x82, 0x3d, 0xa7, 0x3e, 0xe3, 0x2f, 0xd2, 0x3e, 0x17, 0x9f, 0xd0, 0xbd, 0x46, 0xc6, 0x82, 0x3e, 0x23, 0xfc, 0x55, 0xbe, 0xd9, 0xa7, 0x0d, 0x3f, 0x54, 0xae, 0x0a, 0x3e, 0xb7, 0xd5, 0xa7, 0xbe, 0x70, 0xef, 0xd9, 0x3e, 0x1d, 0xa6, 0xf0, 0x3c, 0xb5, 0x9e, 0xa4, 0xbd, 0xe5, 0x45, 0x9d, 0x3e, 0x67, 0xb7, 0x94, 0x3e, 0xec, 0xcf, 0x91, 0x3e, 0x94, 0xfa, 0x2b, 0x3e, 0x4e, 0x0b, 0xbd, 0xbd, 0xcd, 0x5f, 0x8a, 0x3e, 0xb7, 0x52, 0xe8, 0x3e, 0x1f, 0xb3, 0x36, 0x3e, 0x58, 0x22, 0x8d, 0x3e, 0x4a, 0xb0, 0x76, 0x3e, 0x33, 0x2b, 0x91, 0x3e, 0x19, 0x96, 0x2f, 0x3d, 0xdb, 0xb7, 0x8c, 0xbe, 0xb1, 0x1d, 0xce, 0x3e, 0x7b, 0x86, 0x6d, 0x3e, 0xc7, 0x60, 0x8c, 0x3e, 0x7a, 0xc4, 0x25, 0x3e, 0xab, 0x64, 0x02, 0x3f, 0x27, 0xb0, 0xca, 0xbc, 0x2a, 0x5e, 0x09, 0x3e, 0x23, 0x93, 0xb5, 0x3c, 0x6d, 0xcd, 0x08, 0x3d, 0xfb, 0x79, 0x9a, 0xbd, 0x7c, 0x09, 0x16, 0xbe, 0x5e, 0x51, 0x77, 0xbd, 0xac, 0x1d, 0x84, 0xbe, 0xcb, 0x99, 0x13, 0x3f, 0x8c, 0x1d, 0x64, 0x3e, 0xc6, 0xe5, 0x03, 0xbf, 0x53, 0xa5, 0x2e, 0xbd, 0x76, 0x6c, 0x94, 0x3e, 0x27, 0xbb, 0x13, 0x3e, 0xa1, 0x11, 0xee, 0x3d, 0x15, 0x35, 0x10, 0x3e, 0x60, 0xc3, 0x01, 0x3f, 0x5d, 0x7d, 0x84, 0xbc, 0x3e, 0x9c, 0x0b, 0x3f, 0xc7, 0x64, 0xf5, 0xbd, 0x7e, 0xb1, 0xe4, 0x3e, 0xc1, 0x3d, 0xba, 0x3e, 0xff, 0x81, 0x54, 0x3e, 0xd4, 0x21, 0xed, 0x3d, 0x5e, 0x24, 0x0a, 0x3d, 0x3c, 0xe5, 0x22, 0x3e, 0x07, 0xef, 0x8d, 0xbc, 0x70, 0xf1, 0x5b, 0x3d, 0x95, 0xa6, 0x2e, 0xbe, 0xb6, 0x4d, 0x8b, 0xbd, 0x3d, 0x12, 0xc7, 0x3d, 0x6a, 0x57, 0x86, 0xbe, 0x3b, 0x33, 0x58, 0x3d, 0xa3, 0x35, 0xb8, 0xbd, 0x20, 0x0e, 0xe2, 0xbe, 0xf0, 0xee, 0x4c, 0x3e, 0x2e, 0xb3, 0x89, 0x3e, 0x8d, 0x58, 0x4b, 0x3e, 0x41, 0x5c, 0x47, 0xbd, 0x6a, 0xf6, 0x6d, 0x3e, 0x90, 0x19, 0x64, 0x3e, 0xf1, 0x24, 0x1c, 0x3d, 0xa0, 0x32, 0xf2, 0x3d, 0xc1, 0xa1, 0xa8, 0x3d, 0x57, 0xa8, 0xf1, 0xbe, 0x5e, 0xe6, 0xf5, 0xbe, 0xa5, 0xcc, 0x37, 0x3e, 0x14, 0x48, 0x62, 0x3d, 0x1d, 0x8a, 0x58, 0x3e, 0x27, 0x37, 0xb1, 0x3d, 0xaf, 0x3e, 0xc8, 0x3d, 0xd4, 0xb9, 0x41, 0x3e, 0x96, 0x31, 0xcf, 0x3c, 0xa8, 0xeb, 0x26, 0x3f, 0x8c, 0xe2, 0x86, 0x3e, 0xb9, 0x71, 0x9d, 0x3e, 0x9b, 0xb8, 0xb4, 0x3e, 0x20, 0x54, 0x91, 0x3e, 0x32, 0x55, 0xf5, 0xb9, 0x50, 0xc8, 0x9a, 0x3e, 0x47, 0xcc, 0x0f, 0xbe, 0xeb, 0x9d, 0x56, 0x3e, 0xa7, 0x5f, 0x8d, 0x3e, 0x71, 0xca, 0xc2, 0x3e, 0x29, 0xd6, 0x2e, 0x3f, 0xd6, 0x27, 0x19, 0x3e, 0x00, 0x48, 0x0a, 0x3e, 0xd4, 0x39, 0x5a, 0x3f, 0x1a, 0xe0, 0xf9, 0x3e, 0xd8, 0x30, 0x42, 0xbd, 0x3f, 0x3a, 0x04, 0xbd, 0x60, 0x0f, 0x8a, 0x3d, 0xd4, 0x32, 0x1e, 0x3e, 0x02, 0x60, 0x42, 0x3e, 0x56, 0x91, 0x38, 0x3e, 0x35, 0x8d, 0x75, 0x3d, 0x7b, 0x07, 0x20, 0x3e, 0x0b, 0x64, 0xbe, 0xbe, 0x36, 0x33, 0xaf, 0x3d, 0x51, 0xc8, 0xbe, 0xbb, 0xab, 0x63, 0x82, 0x3d, 0xed, 0xd0, 0x43, 0x3e, 0xba, 0x14, 0xfe, 0x3d, 0x17, 0x84, 0x52, 0xbe, 0xd0, 0xaa, 0x00, 0x39, 0xb3, 0x81, 0x9d, 0x3d, 0xf3, 0x45, 0xf6, 0x3e, 0x72, 0x17, 0x69, 0x3f, 0x6c, 0xe0, 0x79, 0x3e, 0x44, 0x34, 0x09, 0x3d, 0x6b, 0x00, 0x42, 0x3f, 0x91, 0x13, 0xef, 0x3e, 0xfc, 0xd6, 0x09, 0x3e, 0x6a, 0x0a, 0x04, 0x3f, 0xe2, 0x49, 0x40, 0xbd, 0x9c, 0xe6, 0xa9, 0x3e, 0xfc, 0xa0, 0x7f, 0xbe, 0x44, 0x42, 0x3b, 0x3e, 0x05, 0x82, 0xae, 0x3d, 0x0d, 0x79, 0x0c, 0x3e, 0xf3, 0x34, 0xad, 0x3e, 0x80, 0x61, 0x81, 0xbe, 0xa7, 0x77, 0xb7, 0x3e, 0x3b, 0xf2, 0x24, 0xbc, 0xdd, 0x99, 0xb3, 0x3e, 0xf5, 0xf5, 0x87, 0x3d, 0x93, 0x30, 0x21, 0xbe, 0x6c, 0x42, 0x17, 0x3e, 0x9e, 0x44, 0x21, 0x3d, 0xe1, 0xba, 0xe4, 0xbd, 0x6e, 0x5b, 0xf6, 0x3d, 0x2a, 0xd3, 0xf7, 0x3d, 0x86, 0x70, 0xef, 0x3d, 0x7c, 0x45, 0x28, 0x3e, 0xb1, 0xdc, 0x99, 0x3d, 0x39, 0xce, 0xff, 0x3d, 0xc8, 0xf2, 0x88, 0xbf, 0x99, 0x2a, 0xc7, 0x3d, 0x2c, 0x42, 0xae, 0x3e, 0x94, 0xce, 0x10, 0xbe, 0x40, 0xa0, 0x85, 0x3e, 0x96, 0x83, 0x8c, 0x3e, 0x67, 0x42, 0x64, 0xbe, 0x0e, 0x0f, 0x24, 0xbf, 0x98, 0x65, 0xc9, 0x3e, 0x36, 0xc8, 0xe6, 0x3d, 0xde, 0x9c, 0x84, 0xbd, 0x2b, 0x4a, 0x93, 0x3e, 0xbe, 0xc6, 0x91, 0x3e, 0x9b, 0xd1, 0x9c, 0x3b, 0x67, 0x21, 0x21, 0xbf, 0x3e, 0x32, 0x8a, 0xbd, 0x2d, 0xda, 0x1d, 0x3d, 0x4f, 0xc8, 0x8d, 0xbd, 0xec, 0x19, 0xf4, 0xbe, 0xc2, 0x91, 0xe6, 0xbe, 0x21, 0x7d, 0x49, 0x3e, 0x9c, 0x41, 0x60, 0x3e, 0xa4, 0x3b, 0x3c, 0xbe, 0x09, 0x3b, 0x4d, 0xbe, 0x46, 0x18, 0x95, 0x3e, 0x9a, 0xbc, 0x84, 0x3e, 0x2c, 0xcd, 0x0c, 0x3e, 0x00, 0x89, 0x16, 0xbd, 0x03, 0xd2, 0x3c, 0xbd, 0x2a, 0xd8, 0x7e, 0xbe, 0xff, 0xbc, 0x2b, 0xbf, 0xdf, 0x7a, 0x87, 0xbe, 0x88, 0x5a, 0x46, 0x3b, 0xca, 0xee, 0x86, 0x3e, 0x70, 0x75, 0x38, 0x3e, 0x22, 0x0c, 0xe9, 0x3c, 0xa0, 0x77, 0x98, 0xbc, 0xe2, 0xfd, 0xdc, 0xbb, 0xc6, 0xe4, 0xbb, 0x3d, 0xcb, 0x56, 0x44, 0x3e, 0x41, 0x45, 0x45, 0xbe, 0xc3, 0xb9, 0x4e, 0xbf, 0xf5, 0xbf, 0x3e, 0xbe, 0x28, 0xd7, 0xe8, 0x3e, 0x0f, 0xea, 0xb5, 0x3c, 0x63, 0xff, 0x0e, 0xbf, 0x4b, 0x0c, 0x97, 0xbc, 0x02, 0xe4, 0x18, 0xbe, 0x17, 0xcc, 0xae, 0xbe, 0xba, 0x52, 0x60, 0x3e, 0x61, 0x3a, 0x22, 0xbe, 0x99, 0xb2, 0x62, 0x3d, 0x0d, 0xef, 0x90, 0x3b, 0x42, 0xfa, 0x14, 0xbf, 0x35, 0xa2, 0x9c, 0x3d, 0x71, 0x31, 0x17, 0xbf, 0x57, 0x6c, 0xf5, 0x3d, 0xaa, 0x32, 0xf9, 0x3d, 0x35, 0x82, 0xc0, 0x3a, 0x81, 0xbe, 0x1e, 0xbf, 0xdc, 0xab, 0x09, 0xbc, 0xf4, 0x93, 0x56, 0x3d, 0x0c, 0xd2, 0x0e, 0x3d, 0xf8, 0xeb, 0x9d, 0xbe, 0x04, 0xb4, 0x19, 0xbe, 0xb3, 0x14, 0x2c, 0xbf, 0xee, 0x42, 0xab, 0xbe, 0x27, 0x74, 0x21, 0xbe, 0x57, 0x19, 0x49, 0xbf, 0xef, 0x23, 0xd0, 0xbe, 0x20, 0x25, 0x14, 0x3d, 0xa2, 0xf6, 0x85, 0xbe, 0xcc, 0x48, 0xee, 0xbc, 0x6b, 0x98, 0x8b, 0xbe, 0xb6, 0x18, 0xb0, 0xbe, 0x1a, 0xe3, 0x24, 0xbe, 0x26, 0x6d, 0xf5, 0xbe, 0x30, 0xd3, 0xcf, 0x3d, 0x23, 0x10, 0x6e, 0xbe, 0x1d, 0x33, 0x04, 0xbf, 0xf8, 0xfc, 0x3e, 0xbf, 0xa3, 0x1d, 0xc5, 0x3d, 0xde, 0x09, 0xb8, 0x3b, 0x1b, 0xf2, 0x23, 0x3e, 0x48, 0x81, 0x9b, 0xbd, 0xd6, 0x1c, 0x4a, 0xbc, 0x71, 0xf9, 0x7a, 0x3d, 0x21, 0xad, 0x70, 0x3d, 0x5b, 0x1b, 0x12, 0xbf, 0xc2, 0x22, 0x0d, 0x3e, 0x6d, 0x9d, 0x47, 0x3d, 0x45, 0x6e, 0x1f, 0x3d, 0x46, 0x07, 0xe5, 0x3d, 0xa0, 0x7d, 0x06, 0xbf, 0x6b, 0x8f, 0x5f, 0xbc, 0xfe, 0xd3, 0xd1, 0x3e, 0xac, 0x2f, 0xfa, 0xbe, 0xb5, 0x1d, 0xd4, 0x3d, 0x1b, 0x73, 0x33, 0xbf, 0x84, 0x4d, 0xf5, 0xbe, 0xa2, 0xc6, 0x15, 0xbe, 0x88, 0x61, 0x0f, 0xbf, 0x0f, 0x2a, 0x13, 0xbf, 0x58, 0xf6, 0x31, 0xbd, 0xc2, 0x1d, 0x40, 0x3e, 0x8a, 0x08, 0x91, 0xbd, 0x5b, 0xab, 0x9e, 0xbd, 0xc1, 0xee, 0x17, 0xbe, 0xb8, 0x6b, 0xb1, 0x3e, 0x7f, 0xd6, 0x3d, 0x3e, 0x6b, 0xf7, 0x2c, 0xbe, 0xf6, 0xc6, 0x7d, 0xbe, 0xd7, 0x72, 0xf4, 0x3c, 0x61, 0x8e, 0x6b, 0xbe, 0xcc, 0x89, 0x36, 0x3d, 0xdf, 0x3a, 0x35, 0x3f, 0x94, 0xb7, 0x20, 0x3d, 0x6f, 0xb9, 0x80, 0x3d, 0x7a, 0x2f, 0x08, 0x3f, 0xfe, 0x59, 0xf6, 0x3c, 0xc6, 0x05, 0x2f, 0x3e, 0x58, 0x69, 0x27, 0x3e, 0xaf, 0x26, 0x44, 0x3c, 0xab, 0x8a, 0x72, 0x3d, 0x90, 0xb8, 0x18, 0x3e, 0x56, 0x9d, 0xbe, 0x3e, 0x59, 0xfe, 0x08, 0x3f, 0x5a, 0x43, 0x1b, 0xbd, 0xf7, 0xa6, 0x3e, 0xbf, 0x8e, 0xbd, 0x85, 0xbe, 0xc8, 0xdb, 0x0e, 0xbe, 0x5b, 0x85, 0xce, 0xbe, 0x06, 0x24, 0xe2, 0xbe, 0x13, 0x2d, 0xd7, 0xbc, 0x49, 0xe0, 0x7a, 0x3e, 0x40, 0xb7, 0x95, 0xbe, 0xdf, 0x69, 0x3a, 0xbe, 0x69, 0xeb, 0x05, 0xbf, 0xf5, 0xf3, 0xf0, 0xbe, 0x25, 0x5c, 0x08, 0xbf, 0x20, 0x5a, 0xd4, 0xbd, 0xc6, 0x9d, 0x45, 0x3d, 0xbe, 0xa9, 0xdc, 0xbe, 0x1b, 0xd0, 0xf2, 0xbd, 0x1d, 0x7b, 0x9e, 0x3e, 0x06, 0xcb, 0x73, 0x3e, 0x46, 0x9d, 0x84, 0xbe, 0x51, 0xc7, 0x70, 0x3e, 0x82, 0x5f, 0x84, 0xbd, 0xb8, 0x1c, 0x6d, 0x3d, 0x5c, 0xac, 0x25, 0x3f, 0x87, 0xf9, 0xd0, 0x3e, 0xf2, 0x3e, 0xff, 0x3c, 0x10, 0x49, 0x8e, 0xbe, 0x53, 0x21, 0xe5, 0xba, 0x2f, 0x08, 0x89, 0xbe, 0xb2, 0x18, 0xdb, 0x3d, 0x77, 0x98, 0xc6, 0xbd, 0x00, 0x18, 0xed, 0xbe, 0xeb, 0xd0, 0x5d, 0xbe, 0xc0, 0x86, 0x2e, 0xbe, 0xfa, 0xbd, 0x45, 0x3d, 0xd8, 0x3b, 0x04, 0x3e, 0x3a, 0x0a, 0x96, 0x3e, 0x81, 0x8e, 0xe2, 0xbe, 0x36, 0xd8, 0x06, 0xbf, 0xa0, 0x01, 0x11, 0xbd, 0xad, 0x2a, 0x9d, 0xbd, 0x1e, 0x8d, 0xaf, 0xbe, 0x3b, 0x74, 0xe3, 0x3d, 0x4a, 0x50, 0x59, 0x3d, 0x48, 0x29, 0x95, 0xbd, 0xf0, 0xa0, 0x01, 0x3e, 0x51, 0x9e, 0x57, 0xbd, 0xe2, 0x9d, 0x05, 0xbe, 0x50, 0x40, 0x01, 0x3d, 0x7e, 0x9f, 0x1b, 0x3e, 0xe0, 0x6e, 0xeb, 0xbc, 0x82, 0xc6, 0xbf, 0x3c, 0x17, 0x55, 0x19, 0xbd, 0xc7, 0xe6, 0x23, 0x3d, 0x37, 0x44, 0xbd, 0xbd, 0x62, 0xbd, 0x26, 0x3d, 0x8e, 0x18, 0x25, 0xbe, 0xb8, 0x87, 0x8d, 0xbe, 0xd6, 0x72, 0x04, 0xbf, 0xe7, 0xe2, 0xde, 0x3c, 0x3f, 0x2e, 0x77, 0xbe, 0xcb, 0x4b, 0xd8, 0xbe, 0x55, 0x67, 0x54, 0xbd, 0xab, 0xfd, 0xbc, 0xbc, 0x8d, 0xc8, 0x58, 0xbd, 0xf7, 0xfc, 0x79, 0xbb, 0xbb, 0x11, 0xc9, 0x3e, 0x37, 0xa0, 0xc8, 0x3d, 0x57, 0xde, 0xc9, 0x3d, 0xda, 0xa8, 0x59, 0x3e, 0x2b, 0xca, 0x0b, 0x3f, 0x00, 0xb9, 0xd2, 0x3d, 0x41, 0x61, 0x70, 0xbe, 0x68, 0xf6, 0x2d, 0x3e, 0xa4, 0x5d, 0xc1, 0x3e, 0xc8, 0xc5, 0xa2, 0x3e, 0xb3, 0xdc, 0xea, 0x3e, 0x5b, 0x09, 0x3a, 0x3f, 0xd8, 0xf4, 0x51, 0x3d, 0xb2, 0x74, 0xc3, 0x3c, 0xf1, 0x80, 0xb6, 0x3e, 0x5f, 0x6e, 0xd0, 0x3e, 0xed, 0x9c, 0xd4, 0xbb, 0xe8, 0x6b, 0x1a, 0x3d, 0x8b, 0x55, 0x7e, 0xbe, 0x3b, 0x24, 0xcc, 0x3b, 0xd2, 0x1e, 0xe1, 0x3d, 0xb0, 0x06, 0xa4, 0x3d, 0xb1, 0xc5, 0xbd, 0x3d, 0x15, 0x86, 0x3b, 0x3e, 0xd8, 0x54, 0xcc, 0x3d, 0xce, 0x0b, 0x89, 0x3e, 0x84, 0xb3, 0xa0, 0x3e, 0x95, 0x2a, 0x81, 0xbd, 0x3a, 0xd9, 0x97, 0xbe, 0x9d, 0x61, 0x0c, 0xbc, 0xf2, 0x1e, 0x0c, 0xbe, 0x53, 0x6c, 0x1c, 0x3e, 0x75, 0xf1, 0x79, 0x3d, 0x01, 0xaa, 0xeb, 0x3e, 0x8b, 0x7f, 0xa2, 0x3f, 0xde, 0x7c, 0x95, 0x3e, 0x41, 0x6f, 0x9e, 0x3e, 0x8c, 0xa8, 0x4f, 0x3f, 0x5d, 0x4f, 0x01, 0xbe, 0x46, 0xcc, 0x50, 0xbe, 0x0e, 0xc8, 0xe7, 0x3e, 0x3e, 0xc0, 0xb3, 0x3d, 0x18, 0xc7, 0xd5, 0xbe, 0xe4, 0xf3, 0x14, 0x3d, 0x31, 0xed, 0x3a, 0xbe, 0x0d, 0x9d, 0xd4, 0xbc, 0x96, 0x8b, 0x45, 0x3d, 0xf6, 0xef, 0xcf, 0x3e, 0x0b, 0x34, 0xf5, 0x3d, 0x26, 0x91, 0x9c, 0x3d, 0x4d, 0x9b, 0xf2, 0x3d, 0xd9, 0x0a, 0xe3, 0x3d, 0x80, 0x58, 0x4d, 0x3e, 0x1f, 0x08, 0x9c, 0x3d, 0x3a, 0x8b, 0xd2, 0x3d, 0x73, 0x59, 0x95, 0xbe, 0xcb, 0x6f, 0xc6, 0xbe, 0x28, 0x7d, 0x03, 0xbe, 0x52, 0xed, 0x15, 0x3c, 0x27, 0x87, 0x02, 0x3e, 0xa2, 0x81, 0x92, 0x3d, 0x30, 0x33, 0xaa, 0x3d, 0x19, 0xd6, 0x5e, 0x3d, 0x57, 0x83, 0xc9, 0x3d, 0x52, 0x6f, 0x07, 0x3f, 0x64, 0x34, 0xcf, 0x3e, 0x69, 0x3d, 0x4e, 0xbe, 0x1e, 0xdf, 0x71, 0x3e, 0xf9, 0x36, 0x49, 0x3e, 0xb6, 0x08, 0x8c, 0xbb, 0xe7, 0xc2, 0x1f, 0x3f, 0x3f, 0x75, 0xd0, 0xbe, 0x64, 0x26, 0xa8, 0x3c, 0x36, 0xee, 0xc4, 0x3e, 0x2e, 0x99, 0x88, 0xbe, 0x81, 0x59, 0x9f, 0x3e, 0xa2, 0x82, 0x18, 0x3e, 0xf6, 0x5e, 0x07, 0x3e, 0x66, 0xb5, 0x1f, 0x3f, 0x93, 0x4f, 0x8b, 0x3e, 0x65, 0xee, 0x9d, 0xbc, 0x30, 0x19, 0x16, 0x3d, 0x09, 0x37, 0x90, 0x3d, 0xab, 0x6e, 0xa8, 0x3d, 0xbb, 0xf6, 0x88, 0x3d, 0xf3, 0x87, 0xb4, 0x3d, 0xcc, 0x7b, 0x31, 0x3d, 0x6b, 0xc3, 0x80, 0xbe, 0xca, 0x0f, 0xc0, 0xbe, 0x72, 0x44, 0x44, 0x3c, 0xbe, 0xdb, 0xc6, 0xbd, 0x85, 0x8d, 0x63, 0xbc, 0x92, 0x31, 0xc6, 0x3e, 0xfd, 0xb7, 0x76, 0x3e, 0x10, 0x3e, 0xfb, 0xbc, 0x6f, 0x03, 0x4c, 0xbe, 0x28, 0x88, 0x60, 0x3d, 0x26, 0x77, 0xe1, 0x3e, 0x4e, 0x77, 0x1a, 0x3f, 0xba, 0xd7, 0x32, 0x3e, 0x34, 0xda, 0x0b, 0x3f, 0x30, 0x44, 0xa0, 0x3e, 0xae, 0xf2, 0xa2, 0xbc, 0x80, 0xa2, 0x9b, 0x3d, 0xdf, 0xd6, 0xef, 0xbd, 0x56, 0x38, 0x9a, 0xbc, 0x47, 0x6e, 0x3f, 0xbc, 0xc5, 0xc6, 0x9e, 0xbe, 0x4c, 0x25, 0xe6, 0x3d, 0x7a, 0x08, 0x30, 0x3e, 0xab, 0x6e, 0x56, 0x3e, 0xc8, 0xf9, 0x05, 0xbf, 0xf3, 0x9f, 0x12, 0xbe, 0x54, 0x27, 0xd4, 0x3d, 0x88, 0x13, 0x23, 0xbf, 0x3a, 0xcc, 0xce, 0xbc, 0xe3, 0x6a, 0xb7, 0xbe, 0xb4, 0xd1, 0xaa, 0xbe, 0x49, 0x09, 0x62, 0xbe, 0xc8, 0xc3, 0xda, 0x3e, 0xf2, 0xf6, 0x4b, 0x3e, 0x6d, 0x0e, 0xdc, 0xbd, 0x89, 0x13, 0x88, 0x3d, 0x08, 0x6e, 0xee, 0xbe, 0x56, 0x13, 0xfc, 0xbe, 0xde, 0x96, 0x2c, 0xbf, 0xe6, 0xc3, 0x6d, 0xbd, 0x7b, 0xff, 0x0d, 0xbf, 0xe2, 0x53, 0x2c, 0x3e, 0x1a, 0xfc, 0xfa, 0x3d, 0x21, 0x84, 0x7c, 0xbd, 0xbb, 0xa4, 0xb9, 0x3d, 0x95, 0xe0, 0x4c, 0x3d, 0x96, 0x28, 0xab, 0x3e, 0x36, 0xbf, 0xcb, 0xbe, 0x12, 0xe6, 0xd9, 0xbd, 0xeb, 0x49, 0x22, 0x3d, 0x97, 0x93, 0xf6, 0x3d, 0x61, 0xdd, 0x78, 0x3e, 0xa2, 0x75, 0xa1, 0x3e, 0x48, 0xf2, 0x34, 0xbf, 0x36, 0xf7, 0x0a, 0xbe, 0xa4, 0x3c, 0x6b, 0x3e, 0x63, 0x6f, 0x90, 0x3e, 0x7e, 0x95, 0xe4, 0x3e, 0x2f, 0x04, 0x47, 0xbe, 0x9d, 0xe7, 0xd2, 0xbe, 0xd9, 0x09, 0x0b, 0xbe, 0x02, 0xbf, 0x26, 0xbe, 0x9c, 0x28, 0xf2, 0xbe, 0x2d, 0x8d, 0x31, 0xbf, 0x00, 0x22, 0x6e, 0xbd, 0x28, 0x9b, 0xa7, 0x3d, 0xe5, 0xa0, 0x84, 0x3e, 0x2c, 0x82, 0x21, 0x3d, 0x9f, 0x74, 0x97, 0xbe, 0x02, 0x20, 0x0d, 0xbf, 0xdd, 0x28, 0xe6, 0xbe, 0x77, 0x0d, 0x0e, 0xbf, 0x58, 0xb2, 0xf8, 0xbb, 0xd3, 0xfa, 0x3e, 0xbe, 0x33, 0x48, 0xc6, 0x3d, 0x8e, 0x85, 0xa3, 0x3e, 0x05, 0x94, 0xbb, 0xbd, 0x84, 0xa4, 0x67, 0x3d, 0xa8, 0x85, 0x6d, 0x3e, 0x14, 0xa5, 0x17, 0x3e, 0x46, 0x8c, 0x40, 0xbd, 0xd0, 0x03, 0x0a, 0xbe, 0x79, 0x2f, 0xac, 0x3d, 0x6f, 0x80, 0x75, 0xbe, 0xc5, 0x32, 0x65, 0xbd, 0xd9, 0x82, 0xa0, 0x3c, 0x5e, 0x91, 0x0b, 0xbd, 0xe5, 0xc6, 0x45, 0xbe, 0x13, 0xbd, 0x18, 0x3e, 0x64, 0x7e, 0x8b, 0xbe, 0xc6, 0x26, 0xaa, 0x3d, 0xf3, 0x41, 0x53, 0x3e, 0xa2, 0xbd, 0xa2, 0x3d, 0x87, 0xde, 0x46, 0x3e, 0x2e, 0xb1, 0xee, 0x3d, 0x66, 0x04, 0x66, 0x3c, 0xb1, 0xd4, 0x9c, 0xbd, 0x5f, 0x56, 0xaa, 0x3c, 0x09, 0x37, 0x62, 0x3c, 0x9e, 0x7f, 0x96, 0xbd, 0x3f, 0xf4, 0x83, 0x3e, 0x15, 0x8d, 0x4a, 0x3d, 0x2e, 0x75, 0xc9, 0x3d, 0xeb, 0xf3, 0x68, 0x3d, 0x0f, 0x89, 0x33, 0xbf, 0xc8, 0x53, 0x43, 0xbf, 0x63, 0x18, 0x04, 0xbf, 0x5a, 0xea, 0x99, 0xbe, 0x34, 0x0f, 0x5d, 0xbf, 0x47, 0x53, 0x2e, 0xbf, 0x31, 0x93, 0xc4, 0xbc, 0x05, 0xae, 0xec, 0xbd, 0x71, 0x15, 0xff, 0xbc, 0xe8, 0x82, 0x91, 0xbe, 0x29, 0x4c, 0x13, 0xbf, 0x52, 0x35, 0xcc, 0xbe, 0xb4, 0x55, 0xf3, 0xbe, 0xe1, 0x60, 0x6c, 0x3e, 0x16, 0x8d, 0xdc, 0xbe, 0x5c, 0x46, 0x82, 0xbf, 0xcf, 0x27, 0x6f, 0xbf, 0x04, 0x59, 0x15, 0x3c, 0x75, 0x1e, 0x26, 0xbe, 0x67, 0x61, 0x0f, 0x3e, 0xab, 0xbb, 0x55, 0x3e, 0xaf, 0x0d, 0x18, 0x3e, 0x13, 0xed, 0x3b, 0x3e, 0xaf, 0x83, 0x3d, 0x3e, 0x2d, 0x29, 0xe3, 0x3d, 0x73, 0x0a, 0xc4, 0xbd, 0x54, 0xa2, 0x20, 0x3d, 0xd3, 0x3e, 0x97, 0xbd, 0xfa, 0x56, 0xe7, 0x3d, 0xb4, 0x11, 0x16, 0x3d, 0xf6, 0x8e, 0x52, 0xbe, 0x49, 0xc3, 0x6e, 0x3e, 0x73, 0x34, 0x9e, 0xbe, 0xe1, 0x9c, 0x92, 0x3d, 0x2a, 0x03, 0x75, 0xbf, 0xe5, 0xd0, 0x3a, 0xbf, 0x9e, 0x4d, 0x05, 0xbf, 0x13, 0x87, 0x10, 0xbf, 0x37, 0xa3, 0x37, 0xbf, 0xe5, 0x54, 0x1e, 0xbe, 0x4d, 0xd1, 0x99, 0xbe, 0x2e, 0xcf, 0x8d, 0xbf, 0xe6, 0x06, 0x8d, 0xbe, 0xd9, 0x8b, 0x03, 0x3f, 0xff, 0x56, 0x93, 0x3d, 0xb9, 0x3a, 0x12, 0xbf, 0x71, 0x6d, 0x6f, 0xbe, 0x4a, 0xa0, 0x7c, 0x3e, 0x6b, 0xba, 0xd8, 0x3d, 0x34, 0xe6, 0xf8, 0xbd, 0x5f, 0xb1, 0x4d, 0xbe, 0xb0, 0xcd, 0x8b, 0xbc, 0x76, 0x57, 0xab, 0xbe, 0xa2, 0xe4, 0x39, 0xbf, 0x42, 0x32, 0x41, 0x3d, 0x79, 0x0e, 0x26, 0xbf, 0x7c, 0x03, 0x94, 0x3b, 0x28, 0x57, 0xa2, 0xbd, 0x26, 0xe5, 0xf2, 0xbe, 0xdb, 0xc8, 0xbd, 0xbe, 0xd8, 0x75, 0x22, 0xbe, 0xd8, 0xe4, 0xd0, 0xba, 0xa0, 0x0f, 0x42, 0x3d, 0x3c, 0xbc, 0xb1, 0xbe, 0x24, 0x49, 0x00, 0x3f, 0x77, 0xcb, 0xb5, 0xbf, 0x39, 0x04, 0xb3, 0xbe, 0x9d, 0x4e, 0x4f, 0x3e, 0xe8, 0x05, 0x24, 0xbe, 0x5d, 0x09, 0x13, 0xbf, 0x30, 0xac, 0x18, 0x3e, 0x71, 0xb5, 0x7f, 0xbe, 0xb1, 0x3a, 0xff, 0x3c, 0x3b, 0x2c, 0x88, 0xbd, 0xe8, 0xd2, 0xa2, 0xbe, 0x2b, 0xb8, 0xf7, 0x3d, 0xf4, 0x01, 0x4f, 0xbf, 0xa4, 0xbb, 0x1f, 0x3d, 0xdd, 0x8b, 0x09, 0xbe, 0xd5, 0xf9, 0x02, 0xbf, 0x45, 0xc1, 0x9c, 0xbf, 0x90, 0x5c, 0xbc, 0x3d, 0xda, 0x64, 0x18, 0x3e, 0x88, 0x2e, 0xdf, 0x3c, 0x2c, 0xf5, 0x15, 0xbf, 0xac, 0xbc, 0xe0, 0x3a, 0xea, 0x8b, 0x79, 0x3d, 0xf2, 0x46, 0x73, 0xbd, 0x68, 0x69, 0x36, 0xbe, 0x3e, 0x0a, 0x53, 0xbe, 0x91, 0x96, 0x89, 0x3d, 0x38, 0xf8, 0x87, 0x3d, 0x4d, 0x01, 0x8a, 0xbc, 0x7f, 0x1a, 0x86, 0xbe, 0x87, 0x6f, 0x0a, 0x3f, 0x56, 0xba, 0xcd, 0x3e, 0x85, 0x0c, 0x18, 0xbe, 0x0c, 0x71, 0x47, 0xbe, 0xe2, 0xca, 0x71, 0xbf, 0x8d, 0x3b, 0x85, 0xbf, 0x3d, 0x03, 0xb3, 0x3c, 0x7e, 0xf0, 0xc2, 0x3e, 0x02, 0xce, 0x7a, 0xbf, 0xf8, 0xde, 0x60, 0xbe, 0x32, 0xed, 0x98, 0xbe, 0x95, 0xfd, 0x85, 0xbf, 0xc9, 0x50, 0xfe, 0xbe, 0xc8, 0xf7, 0xce, 0x3e, 0x1b, 0x9e, 0xbf, 0x3d, 0x75, 0x35, 0xec, 0xbe, 0x96, 0xf6, 0x8f, 0xbe, 0xc2, 0xe6, 0xb0, 0x3d, 0x2d, 0xe8, 0xce, 0x3c, 0x1c, 0x87, 0xeb, 0xbd, 0x1c, 0xf9, 0x50, 0x3e, 0xc0, 0xc6, 0x21, 0x3e, 0x14, 0x01, 0x01, 0xbf, 0xd0, 0xdd, 0x4b, 0xbf, 0x73, 0x5b, 0xef, 0xbb, 0x27, 0x80, 0x07, 0xbf, 0x9c, 0xb4, 0x0b, 0xbb, 0xf7, 0xee, 0xb1, 0xbd, 0x1a, 0xe9, 0x13, 0xbf, 0x66, 0x43, 0xb8, 0xbe, 0xb3, 0xe3, 0xde, 0xbe, 0x60, 0xf7, 0xe1, 0x3d, 0x84, 0xe1, 0xd1, 0x3c, 0x5f, 0x04, 0x82, 0xbe, 0x3d, 0x39, 0x0d, 0x3f, 0xd3, 0x7e, 0x84, 0xbf, 0xa4, 0x1f, 0x7d, 0xbe, 0xce, 0x15, 0xd4, 0x3e, 0x4e, 0xdf, 0xa2, 0xbf, 0x19, 0x63, 0x10, 0xbf, 0x53, 0x2d, 0x84, 0x3d, 0xb5, 0xac, 0x8b, 0xbe, 0x6c, 0x06, 0x1c, 0xbe, 0x4e, 0xc1, 0x3a, 0xbe, 0x5d, 0xab, 0x2d, 0xbe, 0x61, 0xe0, 0xf4, 0x3e, 0x3c, 0xe7, 0x89, 0xbf, 0x93, 0x57, 0x4c, 0xbd, 0x17, 0x69, 0x05, 0xbe, 0x70, 0x63, 0x3b, 0xbf, 0xeb, 0xe2, 0xac, 0xbf, 0x76, 0x5e, 0xaf, 0x3d, 0xb9, 0xef, 0x13, 0x3d, 0x39, 0xa4, 0x19, 0x3e, 0x5f, 0x56, 0xfa, 0xbe, 0x80, 0xc2, 0x6f, 0x3c, 0xeb, 0x56, 0xdc, 0x3d, 0x79, 0x1f, 0x23, 0x3d, 0xaf, 0xb7, 0x1b, 0x3e, 0xab, 0x55, 0x0a, 0x3c, 0xce, 0x8f, 0x90, 0x3d, 0x1a, 0xa6, 0x81, 0xbe, 0x0b, 0x14, 0xeb, 0xbc, 0xed, 0x4b, 0xcf, 0xbe, 0xea, 0x5d, 0xc3, 0x3e, 0x89, 0x0d, 0x8c, 0x3e, 0xa6, 0xdf, 0x94, 0xbe, 0x23, 0x63, 0xa8, 0xbe, 0xcd, 0xd6, 0xae, 0xbf, 0xbc, 0xa6, 0x96, 0xbf, 0x69, 0xa1, 0xd2, 0xbd, 0xdd, 0x1a, 0xae, 0x3e, 0xe8, 0x24, 0x8c, 0xbf, 0x47, 0x83, 0x1e, 0x3c, 0x76, 0xc2, 0x12, 0x3e, 0xbb, 0x75, 0xf4, 0xbc, 0x8f, 0x27, 0xc2, 0x3d, 0x79, 0x16, 0xb3, 0xbd, 0x26, 0xe4, 0xee, 0xbd, 0xab, 0xa3, 0xa9, 0xbb, 0xf8, 0xff, 0x1d, 0x3e, 0x3b, 0x0d, 0x55, 0xbc, 0x0a, 0xc6, 0x8c, 0xbe, 0x7b, 0xa2, 0x25, 0xbe, 0xe3, 0xfc, 0x02, 0xbb, 0x74, 0x55, 0x07, 0xbf, 0x1b, 0x24, 0x65, 0x3d, 0xd3, 0xde, 0xe0, 0xbe, 0x65, 0xdb, 0xe6, 0xbe, 0xcc, 0x47, 0xa6, 0xbe, 0xeb, 0x4a, 0xe7, 0x3d, 0x01, 0xae, 0x84, 0x3e, 0xc8, 0x8d, 0x8a, 0xbd, 0x44, 0x5f, 0x24, 0x3e, 0x5e, 0x54, 0x6c, 0xbe, 0x53, 0x39, 0xb6, 0xbe, 0x15, 0xb7, 0x9b, 0xbe, 0xfb, 0x82, 0x82, 0xbe, 0x81, 0x9c, 0x62, 0xbe, 0xee, 0xb7, 0x7f, 0x3d, 0x69, 0x6a, 0xd6, 0xbc, 0xd4, 0x27, 0x18, 0xbd, 0xe8, 0x56, 0x93, 0x3e, 0x2e, 0xf1, 0x6a, 0x3e, 0x5b, 0xe7, 0x60, 0x3e, 0xad, 0xbe, 0x88, 0x3d, 0x9e, 0x0b, 0x54, 0xbc, 0x37, 0x5a, 0xe7, 0x3d, 0xaf, 0xbe, 0xc8, 0x3d, 0x2f, 0x0d, 0xce, 0x3d, 0x9e, 0xde, 0xf2, 0x3d, 0xda, 0x49, 0xbf, 0xbe, 0x82, 0x85, 0xac, 0x3e, 0x08, 0x15, 0xc1, 0x3e, 0xf3, 0x9b, 0x0d, 0x3e, 0x8f, 0xeb, 0xc2, 0x3e, 0x2b, 0x4d, 0xdf, 0x3d, 0x53, 0xf2, 0x29, 0xbe, 0x27, 0x4b, 0x4b, 0xbe, 0x07, 0x8b, 0xe1, 0xbd, 0xc0, 0x52, 0xf4, 0xbe, 0x38, 0x22, 0xac, 0xbe, 0xb2, 0x2b, 0xec, 0x3c, 0xf3, 0x23, 0x3c, 0x3e, 0xb4, 0x8c, 0x3a, 0x3e, 0xc5, 0xac, 0xe0, 0x3e, 0xbc, 0xe8, 0xfa, 0xbe, 0xc2, 0xa5, 0xbf, 0xbe, 0x87, 0xf4, 0x88, 0xbe, 0xe0, 0xfe, 0x9e, 0x3c, 0x9f, 0x89, 0xbd, 0x3e, 0xc0, 0xad, 0xe0, 0x3c, 0xe9, 0x8d, 0x32, 0xbd, 0x65, 0x05, 0xaf, 0x3d, 0x95, 0xa5, 0xf4, 0x3e, 0xda, 0x7e, 0x0c, 0xbe, 0x5a, 0xc6, 0xe9, 0x3e, 0x75, 0xac, 0xaa, 0x3d, 0x29, 0x65, 0x5f, 0xbe, 0xb7, 0x57, 0x0c, 0x3e, 0x3f, 0x06, 0x4a, 0xbd, 0x83, 0x58, 0xb5, 0xbe, 0x03, 0x43, 0x14, 0x3d, 0x83, 0x58, 0x47, 0x3d, 0xe4, 0x7c, 0x16, 0xbf, 0x55, 0x47, 0xec, 0xbd, 0x1d, 0xdd, 0x65, 0x3e, 0xf6, 0x8a, 0x3b, 0xbe, 0x72, 0x3d, 0x6e, 0xbd, 0x7f, 0xb0, 0x10, 0x3e, 0x1b, 0x2c, 0xcf, 0x3e, 0xb7, 0xb0, 0x8c, 0xbd, 0x19, 0x62, 0x65, 0x3d, 0xc7, 0xb8, 0x50, 0x3d, 0x5e, 0xd1, 0xaa, 0xbe, 0x1f, 0x10, 0x5c, 0xbf, 0x6c, 0xb3, 0xb8, 0x3c, 0x1c, 0x67, 0x7d, 0xbe, 0x31, 0x41, 0x22, 0xbc, 0x0e, 0x54, 0x12, 0x3e, 0xec, 0xba, 0xbf, 0x3d, 0x9c, 0x7e, 0xad, 0x3e, 0x01, 0xac, 0xbd, 0x3c, 0x61, 0x94, 0x1b, 0x3f, 0xc2, 0x84, 0x14, 0x3d, 0xe6, 0xea, 0x92, 0x3d, 0x9d, 0x25, 0x12, 0x3f, 0x3d, 0x22, 0xde, 0x3e, 0x51, 0x48, 0x17, 0xbc, 0x3b, 0x73, 0x25, 0xbe, 0xe5, 0x4e, 0xef, 0xbb, 0x00, 0x1d, 0xd7, 0xbd, 0x24, 0x0b, 0x96, 0x3c, 0xee, 0xfb, 0x89, 0x3e, 0x5e, 0x98, 0x4f, 0x3f, 0x21, 0x88, 0xf1, 0x3d, 0xcf, 0x08, 0xec, 0xbd, 0x32, 0x72, 0x27, 0x3f, 0x28, 0x13, 0xad, 0x3e, 0x4c, 0xdd, 0xc6, 0xbd, 0xa8, 0x56, 0x4e, 0x3c, 0x95, 0x7a, 0x22, 0xbe, 0x9d, 0x38, 0x32, 0x3e, 0x5e, 0xf0, 0x2d, 0x3e, 0x84, 0x74, 0x76, 0x3d, 0xb3, 0x27, 0xed, 0x3d, 0x0b, 0x58, 0x7f, 0xbd, 0xe8, 0x9d, 0x7e, 0xbb, 0x32, 0x50, 0x94, 0x3d, 0xef, 0x03, 0x80, 0x3e, 0xfd, 0xac, 0x42, 0xbe, 0x1a, 0x3c, 0xc8, 0xbe, 0x6b, 0x2e, 0xca, 0x3c, 0x56, 0x50, 0x7e, 0xbe, 0xa7, 0x5f, 0x82, 0x3e, 0x6c, 0x8f, 0x14, 0x3e, 0x6a, 0x75, 0xf2, 0x3e, 0x3c, 0x0e, 0x30, 0x3f, 0x0b, 0xd3, 0x77, 0x39, 0x24, 0xaa, 0xa0, 0xbd, 0xb0, 0xc1, 0x17, 0x3f, 0xe5, 0x40, 0x61, 0xbe, 0x97, 0xd4, 0xa2, 0x3d, 0x94, 0xd3, 0x95, 0xbe, 0xf9, 0xf6, 0xf5, 0x3d, 0x6b, 0x1a, 0xa7, 0x3d, 0xc2, 0x3c, 0xeb, 0x3d, 0x68, 0xf1, 0x8e, 0xbd, 0xac, 0x83, 0x9c, 0x3d, 0xa9, 0x66, 0x44, 0xbe, 0x90, 0xe5, 0x59, 0xbc, 0x24, 0xf6, 0xb5, 0x3e, 0x03, 0x06, 0x41, 0xbd, 0x27, 0x32, 0x1f, 0x3f, 0x92, 0x48, 0x8f, 0x3d, 0xa4, 0x29, 0xd0, 0x3e, 0x11, 0x67, 0xcd, 0x3e, 0x26, 0x64, 0xea, 0x3d, 0xb9, 0xa5, 0x2e, 0xbd, 0x62, 0xc4, 0xdd, 0x3d, 0x8e, 0x2d, 0x5f, 0xbd, 0x32, 0xb4, 0x4d, 0x3d, 0xae, 0xa9, 0x00, 0x3e, 0xf5, 0xe9, 0x12, 0xbd, 0xa4, 0x32, 0x5a, 0x3e, 0xd9, 0xfd, 0xcb, 0xbd, 0xf6, 0x2e, 0x72, 0x3f, 0xd4, 0xde, 0xff, 0xbb, 0x30, 0x7e, 0xdf, 0xbd, 0x24, 0x70, 0xbd, 0x3e, 0xca, 0x00, 0xfd, 0x3d, 0x3d, 0x8e, 0x89, 0xbe, 0x07, 0x34, 0x31, 0xbe, 0x6f, 0x04, 0x1e, 0x3f, 0xc2, 0x17, 0xcb, 0xbd, 0xed, 0xf9, 0x04, 0x3e, 0xc1, 0xa7, 0x23, 0x3e, 0x8e, 0x2b, 0xff, 0x3d, 0xb0, 0x6f, 0x39, 0xbe, 0x86, 0x77, 0x19, 0x3e, 0x4b, 0x8f, 0xf2, 0x3e, 0xa8, 0x2a, 0xc3, 0xbd, 0x74, 0x26, 0xa5, 0xbd, 0x9b, 0x5e, 0x42, 0xbe, 0x4b, 0x67, 0x4f, 0x3f, 0x2a, 0x7c, 0x5d, 0x3f, 0x2f, 0xe0, 0x06, 0x3e, 0xbe, 0x37, 0x49, 0x3e, 0x97, 0x04, 0x08, 0x3f, 0x9c, 0x1a, 0x90, 0x3e, 0xa7, 0x66, 0x15, 0x3d, 0x15, 0x02, 0x09, 0xbe, 0x09, 0xe2, 0xc8, 0xbd, 0xb9, 0x27, 0xe9, 0xbd, 0x78, 0xce, 0xe1, 0x3e, 0xce, 0xd0, 0x12, 0x3f, 0xa2, 0xcc, 0xb2, 0x3e, 0x03, 0x1c, 0x06, 0x3f, 0xe4, 0xcc, 0xe4, 0x3d, 0x67, 0x2a, 0x9f, 0x3c, 0x54, 0x94, 0x37, 0xbe, 0xaf, 0xaa, 0xaa, 0x3e, 0xa8, 0xcb, 0xdc, 0x3d, 0x0e, 0xfb, 0x68, 0xbd, 0x1f, 0xfb, 0x33, 0xbe, 0xb2, 0x74, 0x95, 0xbe, 0x92, 0x44, 0x33, 0x3e, 0xdc, 0x7b, 0xec, 0xbe, 0xa1, 0xb6, 0x5e, 0x3e, 0xed, 0xf5, 0x93, 0xbe, 0x06, 0x33, 0x22, 0xbe, 0x69, 0x76, 0xf6, 0x3d, 0x35, 0xbb, 0xbe, 0x3e, 0x80, 0x71, 0x1f, 0xbe, 0x88, 0x08, 0xdf, 0x3e, 0xed, 0xdd, 0xb8, 0xbd, 0x42, 0x3a, 0x35, 0xbd, 0x8a, 0x96, 0x6c, 0x3d, 0x3e, 0xe8, 0x73, 0x3e, 0x04, 0x85, 0xf2, 0x3e, 0x5f, 0xc3, 0xe8, 0xbd, 0xf4, 0x4b, 0x0f, 0x3f, 0xd1, 0x39, 0xf6, 0xbd, 0xc2, 0x92, 0x2c, 0xbc, 0xfb, 0x2b, 0x2e, 0x3d, 0x94, 0xeb, 0x46, 0x3e, 0x1f, 0x1e, 0xf2, 0x3e, 0xeb, 0xd2, 0xfe, 0xbe, 0xf1, 0x44, 0xdb, 0xbd, 0xdd, 0x65, 0xc3, 0x3e, 0x3d, 0x16, 0x38, 0x3f, 0xc6, 0x0b, 0x2b, 0xbe, 0xfa, 0x6c, 0xc9, 0xbe, 0x17, 0x37, 0xbb, 0x3e, 0x21, 0x4d, 0xa0, 0xbe, 0x85, 0x80, 0xdd, 0xbe, 0xea, 0x6f, 0x8e, 0xbe, 0x13, 0x7e, 0x1d, 0x3f, 0xa5, 0x9f, 0x4b, 0xbe, 0x9a, 0x8c, 0x00, 0x3e, 0x0c, 0x07, 0xb5, 0x3e, 0x29, 0x9a, 0x49, 0x3e, 0x3b, 0x8f, 0x65, 0xbd, 0x72, 0x76, 0xb4, 0x3e, 0x0e, 0x87, 0x63, 0x3e, 0x9a, 0x14, 0x9f, 0xbe, 0xf8, 0xe4, 0x32, 0x3d, 0xb3, 0x91, 0x6a, 0xbe, 0xfd, 0x6a, 0xf3, 0x3d, 0x32, 0x1e, 0xe4, 0xbd, 0x29, 0x39, 0x1b, 0x3f, 0x45, 0x83, 0x92, 0x3e, 0x3e, 0xc8, 0x92, 0xbe, 0x76, 0x89, 0x5b, 0x3d, 0xc8, 0xbc, 0x08, 0x3e, 0x55, 0xf8, 0x6c, 0xbe, 0xf2, 0x0c, 0x91, 0xbc, 0x09, 0x55, 0xae, 0xbd, 0xeb, 0xbe, 0x43, 0x3f, 0x89, 0x60, 0x6e, 0x3e, 0xea, 0x79, 0x7f, 0x3f, 0xb3, 0x03, 0x39, 0x3e, 0xef, 0x7f, 0x98, 0x3e, 0xbf, 0xfb, 0xa9, 0x3e, 0x7f, 0x47, 0x4c, 0xbc, 0x66, 0xe0, 0xae, 0xbb, 0x0d, 0xf0, 0x02, 0xbe, 0x18, 0xfa, 0xa5, 0x3e, 0xa3, 0x34, 0x45, 0xbe, 0x9d, 0xd3, 0x88, 0xbc, 0x18, 0x10, 0x80, 0x3c, 0x5a, 0x1b, 0x67, 0x3e, 0x21, 0x08, 0x93, 0xbd, 0xf3, 0xe3, 0xb9, 0xbe, 0x43, 0x44, 0x6f, 0x3f, 0x12, 0xfc, 0xcf, 0xbc, 0xee, 0xdc, 0xab, 0xbe, 0x33, 0x6d, 0xa5, 0x3d, 0xa5, 0x04, 0xaa, 0x3d, 0xdc, 0x29, 0x19, 0x3e, 0x60, 0x62, 0x01, 0xbc, 0xe7, 0xa0, 0x38, 0x3e, 0xe4, 0xb6, 0x48, 0xbf, 0x06, 0x1a, 0x6e, 0xbe, 0x7f, 0x97, 0xd6, 0x3e, 0x58, 0x1c, 0xd1, 0xbe, 0x71, 0xa7, 0xc6, 0x3e, 0x67, 0x3b, 0xec, 0x3d, 0xb6, 0x06, 0x17, 0x3c, 0x24, 0x44, 0x92, 0xbe, 0x90, 0x32, 0x96, 0xbd, 0x93, 0xd1, 0x8a, 0x3e, 0xb1, 0x68, 0x44, 0x3e, 0x33, 0x11, 0x00, 0xbe, 0x51, 0x65, 0xc7, 0xbc, 0x32, 0xb8, 0xef, 0xbd, 0xb4, 0xa6, 0x8b, 0xbe, 0x1e, 0x2b, 0x07, 0x3e, 0xd8, 0xb4, 0xad, 0xbe, 0xe7, 0x19, 0xe5, 0x3d, 0xbf, 0x59, 0x12, 0x3f, 0x36, 0xa7, 0x85, 0xbd, 0xd7, 0xa1, 0xd7, 0xbd, 0xad, 0xa6, 0x67, 0xbe, 0x6e, 0xdd, 0x69, 0xbe, 0x8b, 0x21, 0xd2, 0xbd, 0x67, 0x2b, 0x5a, 0xbe, 0xe1, 0x04, 0x56, 0x3d, 0x55, 0xcd, 0x8c, 0xbc, 0xa4, 0x41, 0x0d, 0xbe, 0x0e, 0x39, 0x76, 0x3e, 0xbf, 0xbe, 0xa2, 0x3e, 0x6a, 0x3e, 0xd8, 0x3e, 0xe4, 0x7b, 0x53, 0x3e, 0x2f, 0x8a, 0x46, 0xbe, 0xf5, 0x08, 0x51, 0xbe, 0x3f, 0x70, 0x36, 0x3f, 0x79, 0x3c, 0xf9, 0x3d, 0x7d, 0x5c, 0xa4, 0xbd, 0x56, 0xe6, 0xd8, 0xbd, 0xc7, 0x74, 0x6a, 0x3d, 0x28, 0x96, 0x96, 0xbe, 0x65, 0xea, 0xde, 0xbd, 0x48, 0xc5, 0xaa, 0xbe, 0xbc, 0x58, 0x62, 0x3d, 0x0d, 0x63, 0xab, 0xbd, 0xea, 0x84, 0xbf, 0xbe, 0x95, 0x85, 0xbc, 0x3d, 0xba, 0x29, 0x84, 0x3d, 0x57, 0x49, 0xb9, 0x3e, 0xd7, 0x7a, 0xa4, 0xbe, 0x46, 0x5f, 0xc5, 0xbd, 0x49, 0x9a, 0x2c, 0x3e, 0x0e, 0x38, 0x08, 0x3f, 0xc8, 0x0c, 0xe3, 0xbe, 0x38, 0x3c, 0xdf, 0x3e, 0x4a, 0x60, 0x34, 0x3d, 0xb5, 0x87, 0xe2, 0x3e, 0x1b, 0x4f, 0x10, 0xbe, 0x58, 0xa6, 0x10, 0xbe, 0x5f, 0x1e, 0x34, 0x3d, 0xe0, 0xd4, 0xd1, 0x3e, 0x01, 0xe7, 0xfd, 0xbc, 0x3b, 0xd9, 0x90, 0x3d, 0x39, 0xa7, 0x2a, 0x3f, 0x31, 0x6e, 0x5c, 0xbe, 0x77, 0x46, 0xa6, 0xbe, 0x46, 0xc8, 0xbc, 0xbe, 0xe1, 0xbc, 0xa6, 0x3d, 0x56, 0xe9, 0x76, 0xbe, 0x39, 0x12, 0x1a, 0xbe, 0x4e, 0x89, 0x67, 0xbe, 0x9f, 0xa7, 0x2d, 0x3e, 0x25, 0xc6, 0x5c, 0xbe, 0x23, 0x98, 0xb1, 0xbe, 0x93, 0x6e, 0xa7, 0x3e, 0x97, 0x2f, 0xd3, 0x3c, 0xdb, 0x2d, 0x9f, 0xbe, 0x0f, 0xf8, 0x72, 0xbd, 0x6d, 0xb0, 0x02, 0xbe, 0xd6, 0xde, 0xd5, 0x3d, 0x3d, 0xf2, 0x84, 0x3e, 0x05, 0x90, 0xae, 0xbd, 0x95, 0xd9, 0x45, 0x3c, 0x17, 0x9a, 0x99, 0x3e, 0x31, 0x07, 0x05, 0xbe, 0x35, 0x14, 0x19, 0x3f, 0x2e, 0x54, 0x1c, 0x3e, 0xcc, 0xdb, 0x8d, 0x3d, 0x9a, 0x6a, 0x1a, 0x3f, 0xed, 0xcc, 0xb0, 0x3d, 0xc7, 0x70, 0x82, 0xbd, 0xdb, 0x34, 0xe5, 0xbd, 0x69, 0x4f, 0xb0, 0xbd, 0x40, 0xed, 0xd1, 0xbe, 0x48, 0xb8, 0x23, 0xbd, 0xd0, 0x05, 0x94, 0xbb, 0xa1, 0x6e, 0x92, 0xbe, 0xc1, 0x1e, 0x52, 0xbe, 0xb4, 0xf7, 0x81, 0xbe, 0x5a, 0x96, 0x1a, 0x3d, 0x47, 0x4f, 0x4b, 0xbe, 0xf3, 0xec, 0x07, 0x3e, 0xea, 0x6f, 0x15, 0x3f, 0x43, 0x2e, 0x93, 0x3e, 0xe5, 0xb0, 0x5a, 0x3d, 0xd6, 0x16, 0x91, 0xbc, 0x93, 0xff, 0xcb, 0xbe, 0xb1, 0x17, 0x01, 0x3e, 0x59, 0xa0, 0x83, 0xbe, 0x38, 0x56, 0x20, 0x3c, 0xab, 0x7e, 0x8e, 0x3d, 0x5a, 0x54, 0x01, 0xbe, 0x7f, 0xb5, 0x84, 0xbf, 0xd2, 0x2d, 0xe6, 0x3d, 0xcf, 0x83, 0x7e, 0x3e, 0x84, 0x95, 0xe0, 0xbe, 0x81, 0xcc, 0xc6, 0xbe, 0xd1, 0xf3, 0x8c, 0x3e, 0x66, 0x97, 0x8c, 0xbd, 0x77, 0x9c, 0x8f, 0xbe, 0xd5, 0x1a, 0xdd, 0xbe, 0xfb, 0xe1, 0xd3, 0xbe, 0xb8, 0xab, 0x36, 0x3e, 0x2d, 0x8c, 0x9c, 0xbd, 0xb7, 0x38, 0xfe, 0xbd, 0x44, 0x0e, 0xae, 0xbd, 0x9b, 0xac, 0xf4, 0xbe, 0xba, 0x64, 0xc5, 0xbd, 0x83, 0xaa, 0x2b, 0xbf, 0xeb, 0x2c, 0xbe, 0xbb, 0x75, 0x3c, 0x51, 0xbd, 0xf9, 0x8f, 0xd4, 0xbe, 0xa6, 0xa8, 0x2e, 0x3c, 0x87, 0xa0, 0xac, 0x3e, 0x8d, 0x1b, 0x92, 0x3e, 0xb8, 0xa2, 0x37, 0xbe, 0x58, 0x13, 0x91, 0x3c, 0xda, 0x89, 0x16, 0x3d, 0xe8, 0x18, 0xc0, 0xbe, 0xb3, 0xe7, 0x11, 0xbf, 0xdf, 0xfe, 0x8f, 0xbb, 0xe0, 0xd3, 0x5a, 0xbf, 0x23, 0xb9, 0xe1, 0xbe, 0x36, 0x2b, 0xc8, 0xbe, 0xdd, 0x47, 0x18, 0xbf, 0xb6, 0x61, 0xe4, 0xbe, 0xfa, 0xe8, 0x08, 0xbf, 0xdc, 0x3a, 0xa5, 0x3e, 0xd8, 0xd5, 0x0f, 0xbf, 0xb2, 0x04, 0x5a, 0xbe, 0x71, 0x4d, 0x8e, 0xbe, 0xe4, 0x7b, 0x06, 0xbf, 0x6f, 0x10, 0x34, 0xbf, 0x8c, 0x42, 0x97, 0xbe, 0x30, 0x21, 0xf8, 0xbd, 0x4d, 0x32, 0x0a, 0xbf, 0x26, 0x4d, 0x9a, 0xbe, 0x9b, 0x91, 0x27, 0xbe, 0xba, 0xa2, 0x6e, 0x3e, 0x31, 0x16, 0xca, 0xbe, 0xc8, 0x8a, 0xfe, 0xbd, 0xf8, 0xd6, 0x91, 0x3c, 0x22, 0xd2, 0x65, 0xbf, 0x8c, 0x9b, 0x08, 0xbf, 0xb1, 0x56, 0x00, 0xbf, 0xa0, 0x44, 0xff, 0x3d, 0xdf, 0xfd, 0x29, 0xbe, 0xd8, 0xf0, 0xf1, 0xbe, 0xc9, 0xbe, 0xd2, 0xbe, 0xdc, 0x8a, 0xab, 0xbd, 0xe3, 0x11, 0x3a, 0xbe, 0x2b, 0xa5, 0x02, 0xbf, 0xe6, 0x6f, 0xca, 0xbe, 0xb3, 0x88, 0xb2, 0xbe, 0xd8, 0x2c, 0xcc, 0xbd, 0xc7, 0xaa, 0xa5, 0xbe, 0xab, 0x2f, 0x95, 0xbe, 0x1f, 0xa5, 0x04, 0xbf, 0x09, 0xa7, 0x0e, 0xbf, 0x07, 0xde, 0x96, 0xbe, 0x5e, 0xfd, 0xff, 0xff, 0x04, 0x00, 0x00, 0x00, 0x00, 0x02, 0x00, 0x00, 0x80, 0xc1, 0x53, 0x3f, 0x75, 0x04, 0x9f, 0xbf, 0xae, 0xea, 0x8a, 0xbf, 0x33, 0x2f, 0xc8, 0xbb, 0x62, 0x70, 0xda, 0xbe, 0x04, 0xc8, 0x9e, 0xbf, 0x4b, 0x98, 0x81, 0x3e, 0x8a, 0xc5, 0x27, 0x3e, 0xb6, 0x48, 0x56, 0x3f, 0xf6, 0xfb, 0x56, 0xbf, 0x75, 0xa6, 0x99, 0x3e, 0xe5, 0xc0, 0xd6, 0x3e, 0x37, 0xe8, 0xbb, 0x3e, 0x17, 0xe1, 0x86, 0xbe, 0xae, 0x54, 0x6d, 0x3e, 0x18, 0x85, 0x7d, 0x3c, 0xfc, 0x34, 0x69, 0xbe, 0x7e, 0x87, 0x19, 0xbe, 0x03, 0xb8, 0x65, 0xbf, 0x2a, 0x78, 0x4f, 0xbf, 0x72, 0xab, 0xd0, 0x3e, 0xf8, 0xd4, 0x8a, 0xbf, 0x09, 0x8e, 0xb7, 0xbd, 0xf8, 0xe2, 0x5b, 0xbf, 0xe4, 0x8b, 0x41, 0xbf, 0xe0, 0x4c, 0xad, 0x3d, 0x8d, 0x35, 0x3f, 0xbe, 0xc3, 0x97, 0x88, 0x3e, 0x70, 0x7b, 0x63, 0x3e, 0x34, 0x30, 0x89, 0xbf, 0xde, 0x97, 0x57, 0xbf, 0x8d, 0x3b, 0xd1, 0xbf, 0x20, 0x54, 0x1b, 0xbf, 0xa8, 0x92, 0x5d, 0x3e, 0x95, 0x2b, 0x5f, 0x3d, 0x64, 0x64, 0x8d, 0xbd, 0xc3, 0x18, 0x36, 0xbf, 0x15, 0xe7, 0x6f, 0x3d, 0x02, 0x53, 0x25, 0xbf, 0x2c, 0x29, 0x3b, 0xbe, 0x7e, 0xcb, 0xa0, 0xbe, 0x02, 0xd4, 0xd7, 0x3e, 0xb0, 0x78, 0x5c, 0x3e, 0x43, 0x78, 0xe5, 0x3d, 0x07, 0x8c, 0x54, 0x3e, 0x22, 0xb7, 0x01, 0x3f, 0xf2, 0x2b, 0x1c, 0x3e, 0x93, 0x16, 0x89, 0xbf, 0x42, 0xb8, 0x82, 0x3e, 0x19, 0xdd, 0xab, 0x3f, 0x8a, 0x31, 0x92, 0x3e, 0xea, 0x35, 0x0e, 0xbe, 0x76, 0x20, 0xa1, 0xbf, 0x58, 0xc4, 0xea, 0xbe, 0x75, 0x24, 0x4b, 0x3f, 0xfc, 0xf6, 0x93, 0x3f, 0x67, 0xc1, 0x92, 0x3f, 0x1e, 0x23, 0x4a, 0xbf, 0x30, 0x95, 0x4a, 0xbf, 0xad, 0x1e, 0xa9, 0xbc, 0x7c, 0x7e, 0x18, 0x3e, 0xca, 0x3a, 0x26, 0x3e, 0x74, 0xd2, 0xc7, 0x3e, 0x4a, 0xc1, 0xe2, 0xbc, 0x38, 0xa6, 0xf5, 0xbe, 0x54, 0x49, 0x9a, 0x3e, 0x5a, 0x98, 0xbc, 0x3d, 0xa6, 0x2f, 0xc3, 0xbf, 0x0c, 0x49, 0x33, 0x3f, 0xd1, 0x75, 0x1d, 0x3e, 0x23, 0x9f, 0x50, 0x3f, 0xb0, 0xc9, 0x5f, 0xbf, 0xa3, 0xf8, 0x58, 0xbf, 0xec, 0x27, 0xe1, 0x3e, 0x51, 0x61, 0xc6, 0xbf, 0xa1, 0xd1, 0x22, 0xbf, 0xb0, 0xe3, 0x62, 0xbf, 0x13, 0x6d, 0xb0, 0xbf, 0x80, 0xd5, 0xbb, 0xbf, 0xe3, 0x52, 0x8f, 0x3e, 0x1c, 0x7b, 0xb1, 0xbf, 0xa9, 0xa8, 0xab, 0xbf, 0x08, 0xb8, 0x91, 0x3e, 0x21, 0x6f, 0x09, 0x3f, 0xb7, 0x64, 0x65, 0x3f, 0xcb, 0x81, 0x14, 0x3f, 0x5f, 0x73, 0x1c, 0xbf, 0xa3, 0xf8, 0x87, 0xbf, 0x10, 0xd2, 0x92, 0xbf, 0xbf, 0x60, 0x8f, 0x3e, 0x6a, 0x5b, 0x27, 0x3f, 0x5c, 0x4e, 0x68, 0xbc, 0xfc, 0x69, 0xd0, 0xbf, 0x4a, 0x5f, 0x6a, 0x3e, 0x66, 0x45, 0x2c, 0xbe, 0x51, 0x50, 0x7c, 0x3f, 0x14, 0x15, 0x1c, 0xbf, 0xc3, 0xfe, 0x06, 0xbf, 0xc1, 0x47, 0x27, 0xbf, 0x84, 0x28, 0x2e, 0xbd, 0xe9, 0x0a, 0x30, 0xbf, 0x1a, 0x89, 0xcd, 0x3d, 0x91, 0xc7, 0x27, 0x3e, 0x1f, 0x61, 0x05, 0x3f, 0xd3, 0x73, 0x66, 0xbf, 0x08, 0x0f, 0x66, 0xbd, 0x19, 0x48, 0xba, 0xbe, 0x0f, 0x17, 0x80, 0xbf, 0x99, 0x84, 0x57, 0xbf, 0x92, 0x70, 0xd2, 0x3e, 0xbb, 0x23, 0x48, 0x3e, 0xcf, 0xcb, 0x95, 0x3e, 0xaa, 0x26, 0xc2, 0x3e, 0x16, 0x0e, 0xb0, 0xbd, 0x63, 0xd8, 0x9e, 0xbe, 0x1d, 0x3e, 0x1f, 0x3f, 0x3c, 0x18, 0xbf, 0x3e, 0x25, 0xbb, 0x1f, 0x3f, 0x41, 0xd0, 0xd2, 0xbe, 0xee, 0x6b, 0x13, 0xbf, 0xf8, 0xce, 0xb5, 0xbe, 0xb1, 0xf5, 0xf9, 0x3e, 0x93, 0x6d, 0x26, 0x3f, 0x2c, 0x5e, 0x9b, 0xbf, 0x59, 0x95, 0x8e, 0xbe, 0x39, 0x3a, 0xd7, 0xbe, 0xa0, 0xc7, 0xe2, 0x3e, 0xd4, 0x7c, 0x54, 0x3e, 0x78, 0xfa, 0xff, 0xff, 0x7c, 0xfa, 0xff, 0xff, 0x0f, 0x00, 0x00, 0x00, 0x4d, 0x4c, 0x49, 0x52, 0x20, 0x43, 0x6f, 0x6e, 0x76, 0x65, 0x72, 0x74, 0x65, 0x64, 0x2e, 0x00, 0x01, 0x00, 0x00, 0x00, 0x14, 0x00, 0x00, 0x00, 0x00, 0x00, 0x0e, 0x00, 0x18, 0x00, 0x14, 0x00, 0x10, 0x00, 0x0c, 0x00, 0x08, 0x00, 0x04, 0x00, 0x0e, 0x00, 0x00, 0x00, 0x14, 0x00, 0x00, 0x00, 0x1c, 0x00, 0x00, 0x00, 0x24, 0x01, 0x00, 0x00, 0x28, 0x01, 0x00, 0x00, 0x2c, 0x01, 0x00, 0x00, 0x04, 0x00, 0x00, 0x00, 0x6d, 0x61, 0x69, 0x6e, 0x00, 0x00, 0x00, 0x00, 0x04, 0x00, 0x00, 0x00, 0xcc, 0x00, 0x00, 0x00, 0x84, 0x00, 0x00, 0x00, 0x50, 0x00, 0x00, 0x00, 0x14, 0x00, 0x00, 0x00, 0x00, 0x00, 0x0e, 0x00, 0x1a, 0x00, 0x14, 0x00, 0x10, 0x00, 0x0c, 0x00, 0x0b, 0x00, 0x04, 0x00, 0x0e, 0x00, 0x00, 0x00, 0x1c, 0x00, 0x00, 0x00, 0x00, 0x00, 0x00, 0x09, 0x1c, 0x00, 0x00, 0x00, 0x20, 0x00, 0x00, 0x00, 0x01, 0x00, 0x00, 0x00, 0x00, 0x00, 0x06, 0x00, 0x08, 0x00, 0x04, 0x00, 0x06, 0x00, 0x00, 0x00, 0x00, 0x00, 0x80, 0x3f, 0x01, 0x00, 0x00, 0x00, 0x0a, 0x00, 0x00, 0x00, 0x01, 0x00, 0x00, 0x00, 0x09, 0x00, 0x00, 0x00, 0x9a, 0xff, 0xff, 0xff, 0x10, 0x00, 0x00, 0x00, 0x00, 0x00, 0x00, 0x08, 0x0c, 0x00, 0x00, 0x00, 0x10, 0x00, 0x00, 0x00, 0x40, 0xfb, 0xff, 0xff, 0x01, 0x00, 0x00, 0x00, 0x09, 0x00, 0x00, 0x00, 0x03, 0x00, 0x00, 0x00, 0x08, 0x00, 0x00, 0x00, 0x01, 0x00, 0x00, 0x00, 0x03, 0x00, 0x00, 0x00, 0xca, 0xff, 0xff, 0xff, 0x10, 0x00, 0x00, 0x00, 0x00, 0x00, 0x00, 0x08, 0x10, 0x00, 0x00, 0x00, 0x14, 0x00, 0x00, 0x00, 0xba, 0xff, 0xff, 0xff, 0x00, 0x00, 0x00, 0x01, 0x01, 0x00, 0x00, 0x00, 0x08, 0x00, 0x00, 0x00, 0x03, 0x00, 0x00, 0x00, 0x07, 0x00, 0x00, 0x00, 0x02, 0x00, 0x00, 0x00, 0x04, 0x00, 0x00, 0x00, 0x00, 0x00, 0x0e, 0x00, 0x16, 0x00, 0x00, 0x00, 0x10, 0x00, 0x0c, 0x00, 0x0b, 0x00, 0x04, 0x00, 0x0e, 0x00, 0x00, 0x00, 0x18, 0x00, 0x00, 0x00, 0x00, 0x00, 0x00, 0x08, 0x18, 0x00, 0x00, 0x00, 0x1c, 0x00, 0x00, 0x00, 0x00, 0x00, 0x06, 0x00, 0x08, 0x00, 0x07, 0x00, 0x06, 0x00, 0x00, 0x00, 0x00, 0x00, 0x00, 0x01, 0x01, 0x00, 0x00, 0x00, 0x07, 0x00, 0x00, 0x00, 0x03, 0x00, 0x00, 0x00, 0x00, 0x00, 0x00, 0x00, 0x06, 0x00, 0x00, 0x00, 0x05, 0x00, 0x00, 0x00, 0x01, 0x00, 0x00, 0x00, 0x0a, 0x00, 0x00, 0x00, 0x01, 0x00, 0x00, 0x00, 0x00, 0x00, 0x00, 0x00, 0x0b, 0x00, 0x00, 0x00, 0xe8, 0x03, 0x00, 0x00, 0x90, 0x03, 0x00, 0x00, 0x38, 0x03, 0x00, 0x00, 0xfc, 0x02, 0x00, 0x00, 0xa4, 0x02, 0x00, 0x00, 0x50, 0x02, 0x00, 0x00, 0x04, 0x02, 0x00, 0x00, 0x74, 0x01, 0x00, 0x00, 0xdc, 0x00, 0x00, 0x00, 0x60, 0x00, 0x00, 0x00, 0x04, 0x00, 0x00, 0x00, 0x5a, 0xfc, 0xff, 0xff, 0x00, 0x00, 0x00, 0x01, 0x14, 0x00, 0x00, 0x00, 0x1c, 0x00, 0x00, 0x00, 0x1c, 0x00, 0x00, 0x00, 0x0b, 0x00, 0x00, 0x00, 0x34, 0x00, 0x00, 0x00, 0x02, 0x00, 0x00, 0x00, 0xff, 0xff, 0xff, 0xff, 0x04, 0x00, 0x00, 0x00, 0x44, 0xfc, 0xff, 0xff, 0x1b, 0x00, 0x00, 0x00, 0x53, 0x74, 0x61, 0x74, 0x65, 0x66, 0x75, 0x6c, 0x50, 0x61, 0x72, 0x74, 0x69, 0x74, 0x69, 0x6f, 0x6e, 0x65, 0x64, 0x43, 0x61, 0x6c, 0x6c, 0x5f, 0x31, 0x3a, 0x30, 0x00, 0x02, 0x00, 0x00, 0x00, 0x01, 0x00, 0x00, 0x00, 0x04, 0x00, 0x00, 0x00, 0xb2, 0xfc, 0xff, 0xff, 0x00, 0x00, 0x00, 0x01, 0x14, 0x00, 0x00, 0x00, 0x1c, 0x00, 0x00, 0x00, 0x1c, 0x00, 0x00, 0x00, 0x0a, 0x00, 0x00, 0x00, 0x54, 0x00, 0x00, 0x00, 0x02, 0x00, 0x00, 0x00, 0xff, 0xff, 0xff, 0xff, 0x04, 0x00, 0x00, 0x00, 0x9c, 0xfc, 0xff, 0xff, 0x38, 0x00, 0x00, 0x00, 0x73, 0x65, 0x71, 0x75, 0x65, 0x6e, 0x74, 0x69, 0x61, 0x6c, 0x5f, 0x31, 0x2f, 0x64, 0x65, 0x6e, 0x73, 0x65, 0x5f, 0x32, 0x5f, 0x31, 0x2f, 0x4d, 0x61, 0x74, 0x4d, 0x75, 0x6c, 0x3b, 0x73, 0x65, 0x71, 0x75, 0x65, 0x6e, 0x74, 0x69, 0x61, 0x6c, 0x5f, 0x31, 0x2f, 0x64, 0x65, 0x6e, 0x73, 0x65, 0x5f, 0x32, 0x5f, 0x31, 0x2f, 0x41, 0x64, 0x64, 0x00, 0x00, 0x00, 0x00, 0x02, 0x00, 0x00, 0x00, 0x01, 0x00, 0x00, 0x00, 0x04, 0x00, 0x00, 0x00, 0x2a, 0xfd, 0xff, 0xff, 0x00, 0x00, 0x00, 0x01, 0x14, 0x00, 0x00, 0x00, 0x1c, 0x00, 0x00, 0x00, 0x1c, 0x00, 0x00, 0x00, 0x09, 0x00, 0x00, 0x00, 0x70, 0x00, 0x00, 0x00, 0x02, 0x00, 0x00, 0x00, 0xff, 0xff, 0xff, 0xff, 0x20, 0x00, 0x00, 0x00, 0x14, 0xfd, 0xff, 0xff, 0x54, 0x00, 0x00, 0x00, 0x73, 0x65, 0x71, 0x75, 0x65, 0x6e, 0x74, 0x69, 0x61, 0x6c, 0x5f, 0x31, 0x2f, 0x64, 0x65, 0x6e, 0x73, 0x65, 0x5f, 0x31, 0x5f, 0x32, 0x2f, 0x4d, 0x61, 0x74, 0x4d, 0x75, 0x6c, 0x3b, 0x73, 0x65, 0x71, 0x75, 0x65, 0x6e, 0x74, 0x69, 0x61, 0x6c, 0x5f, 0x31, 0x2f, 0x64, 0x65, 0x6e, 0x73, 0x65, 0x5f, 0x31, 0x5f, 0x32, 0x2f, 0x52, 0x65, 0x6c, 0x75, 0x3b, 0x73, 0x65, 0x71, 0x75, 0x65, 0x6e, 0x74, 0x69, 0x61, 0x6c, 0x5f, 0x31, 0x2f, 0x64, 0x65, 0x6e, 0x73, 0x65, 0x5f, 0x31, 0x5f, 0x32, 0x2f, 0x41, 0x64, 0x64, 0x00, 0x00, 0x00, 0x00, 0x02, 0x00, 0x00, 0x00, 0x01, 0x00, 0x00, 0x00, 0x20, 0x00, 0x00, 0x00, 0xbe, 0xfd, 0xff, 0xff, 0x00, 0x00, 0x00, 0x01, 0x14, 0x00, 0x00, 0x00, 0x1c, 0x00, 0x00, 0x00, 0x1c, 0x00, 0x00, 0x00, 0x08, 0x00, 0x00, 0x00, 0x68, 0x00, 0x00, 0x00, 0x02, 0x00, 0x00, 0x00, 0xff, 0xff, 0xff, 0xff, 0x40, 0x00, 0x00, 0x00, 0xa8, 0xfd, 0xff, 0xff, 0x4e, 0x00, 0x00, 0x00, 0x73, 0x65, 0x71, 0x75, 0x65, 0x6e, 0x74, 0x69, 0x61, 0x6c, 0x5f, 0x31, 0x2f, 0x64, 0x65, 0x6e, 0x73, 0x65, 0x5f, 0x31, 0x2f, 0x4d, 0x61, 0x74, 0x4d, 0x75, 0x6c, 0x3b, 0x73, 0x65, 0x71, 0x75, 0x65, 0x6e, 0x74, 0x69, 0x61, 0x6c, 0x5f, 0x31, 0x2f, 0x64, 0x65, 0x6e, 0x73, 0x65, 0x5f, 0x31, 0x2f, 0x52, 0x65, 0x6c, 0x75, 0x3b, 0x73, 0x65, 0x71, 0x75, 0x65, 0x6e, 0x74, 0x69, 0x61, 0x6c, 0x5f, 0x31, 0x2f, 0x64, 0x65, 0x6e, 0x73, 0x65, 0x5f, 0x31, 0x2f, 0x41, 0x64, 0x64, 0x00, 0x00, 0x02, 0x00, 0x00, 0x00, 0x01, 0x00, 0x00, 0x00, 0x40, 0x00, 0x00, 0x00, 0x9e, 0xfe, 0xff, 0xff, 0x00, 0x00, 0x00, 0x01, 0x10, 0x00, 0x00, 0x00, 0x10, 0x00, 0x00, 0x00, 0x07, 0x00, 0x00, 0x00, 0x28, 0x00, 0x00, 0x00, 0x24, 0xfe, 0xff, 0xff, 0x1b, 0x00, 0x00, 0x00, 0x73, 0x65, 0x71, 0x75, 0x65, 0x6e, 0x74, 0x69, 0x61, 0x6c, 0x5f, 0x31, 0x2f, 0x64, 0x65, 0x6e, 0x73, 0x65, 0x5f, 0x31, 0x2f, 0x4d, 0x61, 0x74, 0x4d, 0x75, 0x6c, 0x00, 0x02, 0x00, 0x00, 0x00, 0x40, 0x00, 0x00, 0x00, 0x09, 0x00, 0x00, 0x00, 0xe6, 0xfe, 0xff, 0xff, 0x00, 0x00, 0x00, 0x01, 0x10, 0x00, 0x00, 0x00, 0x10, 0x00, 0x00, 0x00, 0x06, 0x00, 0x00, 0x00, 0x34, 0x00, 0x00, 0x00, 0x6c, 0xfe, 0xff, 0xff, 0x27, 0x00, 0x00, 0x00, 0x73, 0x65, 0x71, 0x75, 0x65, 0x6e, 0x74, 0x69, 0x61, 0x6c, 0x5f, 0x31, 0x2f, 0x64, 0x65, 0x6e, 0x73, 0x65, 0x5f, 0x31, 0x2f, 0x41, 0x64, 0x64, 0x2f, 0x52, 0x65, 0x61, 0x64, 0x56, 0x61, 0x72, 0x69, 0x61, 0x62, 0x6c, 0x65, 0x4f, 0x70, 0x00, 0x01, 0x00, 0x00, 0x00, 0x40, 0x00, 0x00, 0x00, 0x36, 0xff, 0xff, 0xff, 0x00, 0x00, 0x00, 0x01, 0x10, 0x00, 0x00, 0x00, 0x10, 0x00, 0x00, 0x00, 0x05, 0x00, 0x00, 0x00, 0x38, 0x00, 0x00, 0x00, 0xbc, 0xfe, 0xff, 0xff, 0x29, 0x00, 0x00, 0x00, 0x73, 0x65, 0x71, 0x75, 0x65, 0x6e, 0x74, 0x69, 0x61, 0x6c, 0x5f, 0x31, 0x2f, 0x64, 0x65, 0x6e, 0x73, 0x65, 0x5f, 0x31, 0x5f, 0x32, 0x2f, 0x41, 0x64, 0x64, 0x2f, 0x52, 0x65, 0x61, 0x64, 0x56, 0x61, 0x72, 0x69, 0x61, 0x62, 0x6c, 0x65, 0x4f, 0x70, 0x00, 0x00, 0x00, 0x01, 0x00, 0x00, 0x00, 0x20, 0x00, 0x00, 0x00, 0x8a, 0xff, 0xff, 0xff, 0x00, 0x00, 0x00, 0x01, 0x10, 0x00, 0x00, 0x00, 0x10, 0x00, 0x00, 0x00, 0x04, 0x00, 0x00, 0x00, 0x1c, 0x00, 0x00, 0x00, 0x10, 0xff, 0xff, 0xff, 0x0f, 0x00, 0x00, 0x00, 0x61, 0x72, 0x69, 0x74, 0x68, 0x2e, 0x63, 0x6f, 0x6e, 0x73, 0x74, 0x61, 0x6e, 0x74, 0x32, 0x00, 0x01, 0x00, 0x00, 0x00, 0x04, 0x00, 0x00, 0x00, 0xc2, 0xff, 0xff, 0xff, 0x00, 0x00, 0x00, 0x01, 0x10, 0x00, 0x00, 0x00, 0x10, 0x00, 0x00, 0x00, 0x03, 0x00, 0x00, 0x00, 0x1c, 0x00, 0x00, 0x00, 0x48, 0xff, 0xff, 0xff, 0x0f, 0x00, 0x00, 0x00, 0x61, 0x72, 0x69, 0x74, 0x68, 0x2e, 0x63, 0x6f, 0x6e, 0x73, 0x74, 0x61, 0x6e, 0x74, 0x31, 0x00, 0x02, 0x00, 0x00, 0x00, 0x20, 0x00, 0x00, 0x00, 0x40, 0x00, 0x00, 0x00, 0x00, 0x00, 0x16, 0x00, 0x18, 0x00, 0x14, 0x00, 0x00, 0x00, 0x10, 0x00, 0x0c, 0x00, 0x08, 0x00, 0x00, 0x00, 0x00, 0x00, 0x00, 0x00, 0x07, 0x00, 0x16, 0x00, 0x00, 0x00, 0x00, 0x00, 0x00, 0x01, 0x10, 0x00, 0x00, 0x00, 0x10, 0x00, 0x00, 0x00, 0x02, 0x00, 0x00, 0x00, 0x1c, 0x00, 0x00, 0x00, 0x9c, 0xff, 0xff, 0xff, 0x0e, 0x00, 0x00, 0x00, 0x61, 0x72, 0x69, 0x74, 0x68, 0x2e, 0x63, 0x6f, 0x6e, 0x73, 0x74, 0x61, 0x6e, 0x74, 0x00, 0x00, 0x02, 0x00, 0x00, 0x00, 0x04, 0x00, 0x00, 0x00, 0x20, 0x00, 0x00, 0x00, 0x00, 0x00, 0x16, 0x00, 0x1c, 0x00, 0x18, 0x00, 0x00, 0x00, 0x14, 0x00, 0x10, 0x00, 0x0c, 0x00, 0x00, 0x00, 0x00, 0x00, 0x08, 0x00, 0x07, 0x00, 0x16, 0x00, 0x00, 0x00, 0x00, 0x00, 0x00, 0x01, 0x14, 0x00, 0x00, 0x00, 0x20, 0x00, 0x00, 0x00, 0x20, 0x00, 0x00, 0x00, 0x01, 0x00, 0x00, 0x00, 0x3c, 0x00, 0x00, 0x00, 0x02, 0x00, 0x00, 0x00, 0xff, 0xff, 0xff, 0xff, 0x09, 0x00, 0x00, 0x00, 0x04, 0x00, 0x04, 0x00, 0x04, 0x00, 0x00, 0x00, 0x1e, 0x00, 0x00, 0x00, 0x73, 0x65, 0x72, 0x76, 0x69, 0x6e, 0x67, 0x5f, 0x64, 0x65, 0x66, 0x61, 0x75, 0x6c, 0x74, 0x5f, 0x6b, 0x65, 0x72, 0x61, 0x73, 0x5f, 0x74, 0x65, 0x6e, 0x73, 0x6f, 0x72, 0x3a, 0x30, 0x00, 0x00, 0x02, 0x00, 0x00, 0x00, 0x01, 0x00, 0x00, 0x00, 0x09, 0x00, 0x00, 0x00, 0x02, 0x00, 0x00, 0x00, 0x20, 0x00, 0x00, 0x00, 0x04, 0x00, 0x00, 0x00, 0xf4, 0xff, 0xff, 0xff, 0x19, 0x00, 0x00, 0x00, 0x00, 0x00, 0x00, 0x19, 0x0c, 0x00, 0x0c, 0x00, 0x0b, 0x00, 0x00, 0x00, 0x00, 0x00, 0x04, 0x00, 0x0c, 0x00, 0x00, 0x00, 0x09, 0x00, 0x00, 0x00, 0x00, 0x00, 0x00, 0x09
};
const int g_drone_model_data_len = 13492;

#endif  // DRONE_MODEL_DATA_H_
